{
  "▁centres,": 37064,
  "post": 61880,
  "▁ସଚିନ୍": 29742,
  "▁137(1)": 55979,
  "▁ଅଧ୍ଯାପନା": 53147,
  "▁failed,": 56308,
  "▁penins": 65113,
  "▁ଭଲପାଏ": 49742,
  "▁ସୃଷ୍ଟିରେ": 64512,
  "▁tact": 22989,
  "▁ପୀଯୂଷ": 49998,
  "ç": 182,
  "illar": 44588,
  "▁ସଇତାନ": 50292,
  "▁cataly": 31398,
  "ହ୍ମ": 4055,
  "▁monetary": 7579,
  "▁Kosovo,": 18150,
  "▁ତାଗି": 25229,
  "▁ଖାଣ୍ଟି": 52603,
  "▁ଅପରେ": 6830,
  "▁ତୋଳିବ": 58163,
  "▁professions": 32141,
  "▁ହୋତା": 32079,
  "▁ଟେର": 53486,
  "voy,": 70568,
  "ୃଦଯ": 48291,
  "▁ତାଠାରୁ": 46253,
  "ଗରୀ": 29883,
  "ଥିଲି।": 13429,
  "▁ଜିତେନ୍ଦ୍ର": 15796,
  "▁ବାନ": 18383,
  "ich": 1216,
  "▁Bourlanges": 40979,
  "▁heavy": 12616,
  "▁୧୩,": 31084,
  "▁କୁହୁଡି": 46215,
  "▁complete.": 47830,
  "o-Karabakh": 63788,
  "ଗୋଷ୍ଠ": 43030,
  "▁ଠେଙ୍ଗା": 45358,
  "▁୫୫": 11977,
  "ring": 7070,
  "▁ମଧ୍ଯ୍ଯ": 42293,
  "taking": 43690,
  "-West": 63771,
  "▁ରାଜନୀତି:": 41281,
  "▁କର୍ତ୍ତୁପକ୍ଷଙ୍କ": 70991,
  "▁multi-annual": 38627,
  "▁ଶ୍ରୀଲଙ୍କାରେ": 31454,
  "▁solid": 4537,
  "▁meaningless": 49951,
  "▁ମେହେର୍": 65163,
  "▁ତାପ": 7957,
  "▁ରାଜାଙ୍କର": 27300,
  "▁ସେନାରେ": 36509,
  "▁ତା’ର": 4919,
  "▁ନୃତ୍ଯ,": 45464,
  "▁000,": 40018,
  "▁downturn": 41176,
  "▁ନମ୍ର": 30169,
  "▁ଫେଷ୍ଟ୍‌,": 71369,
  "▁କରିପାରିବେ": 4372,
  "▁Gender": 22508,
  "ନାହାଁନ୍ତି।": 48309,
  "▁Lady": 66873,
  "▁ବ୍ରିଟେନ୍‌": 43057,
  "▁drinks": 50578,
  "▁Advisory": 41507,
  "▁shortly,": 60475,
  "▁କେସିଆର": 66232,
  "ତାପରେ": 68896,
  "▁negotiation,": 43602,
  "▁sick": 24545,
  "▁profit,": 48612,
  "▁decision-making,": 51995,
  "▁କୁମାର": 2978,
  "▁Srpsk": 65909,
  "▁ଆବେଦନକୁ": 28413,
  "▁ସଂଗଠନକୁ": 34046,
  "▁କୁହାଯାଏ": 7752,
  "▁corruption,": 26371,
  "▁primacy": 47440,
  "▁Scientific": 27622,
  "▁pulled": 54984,
  "▁ମିଳିଥିଲା": 9366,
  "▁Viv": 58039,
  "▁Sir": 29532,
  "▁ମହିଳାଙ୍କଠାରୁ": 67946,
  "▁conviction.": 60811,
  "▁କଦା": 29796,
  "▁(ହିନ୍ଦୀ": 66469,
  "▁ବାଜି": 9150,
  "▁କାନ୍ତି": 59947,
  "▁Isl": 10641,
  "": 901,
  "▁patentability": 55934,
  "▁ଦେଖାଯିବାକୁ": 73593,
  "▁ବଦଳିଗଲା": 55082,
  "▁ଉଠେଇ": 41904,
  "ନବ": 20616,
  "▁ପଡ଼ିପାରନ୍ତି": 37310,
  "ତ୍ସନା": 50427,
  "itt": 1605,
  "▁ଅଧାରେ": 34865,
  "▁ought,": 67825,
  "▁ଲାଭବାନ": 26942,
  "▁ଲୀ": 19438,
  "▁craft": 29888,
  "▁rigor": 68331,
  "▁Code": 21956,
  "▁ଜାତିକୁ": 50695,
  "▁କିଶାନ": 68893,
  "ସକାଳ": 72631,
  "କ୍ଷିପ୍ତ": 13892,
  "▁crisis": 3114,
  "▁constituents": 27448,
  "▁consisting": 35551,
  "▁procure": 14337,
  "▁Ferre": 20650,
  "▁କାଗଜପତ୍ରରେ": 63783,
  "▁ରକ୍ଷଣାବେ": 24256,
  "▁ମହାବାତ୍ଯା": 46631,
  "▁ବୋନସ": 53104,
  "ଭା.ପ୍ର.ସେ": 72275,
  "▁“ଆରେ": 48619,
  "▁ଗ୍ଯାସର": 53905,
  "▁ନେଲେଣି": 64845,
  "▁criticisms": 21400,
  "▁collabor": 12031,
  "▁ସୁଧୀର": 38775,
  "▁ଇନଷ୍ଟିଚ୍ଯୁ": 25013,
  "▁ଗ୍ଯାଙ୍ଗର": 39464,
  "ଳନ,": 54977,
  "▁republic": 32127,
  "▁ପୃଷ୍ଠପୋଷ": 55090,
  "ଷ୍ଟନ": 63034,
  "▁ଆନ୍ଦୋଳିତ": 52618,
  "▁୭୫୯୦": 49788,
  "▁ଖେଳାଳିମାନଙ୍କୁ": 60232,
  "ମହାନଦୀ": 47583,
  "▁ଆଲା": 41612,
  "▁totalitarian": 20143,
  "▁medium-": 51158,
  "▁Brussels": 8835,
  "▁ନେଉଥିଲେ": 39310,
  "▁incoherent": 73457,
  "▁29th,": 40946,
  "▁Assurance": 70875,
  "୍ଯାଙ୍କ": 73128,
  "▁ଅବସରରେ,": 63386,
  "▁ଡାଏ": 15195,
  "▁buildings.": 39794,
  "▁group,": 9674,
  "▁'catch": 68396,
  "ମତେ": 29426,
  "▁consultation,": 33980,
  "▁ଲୀନ": 36952,
  "▁ଷା": 42754,
  "▁01": 37249,
  "▁revision,": 66670,
  "▁Guarantee": 37831,
  "▁ପର୍ବତାର": 48744,
  "▁Book": 56043,
  "▁commit": 3514,
  "▁ଡିଜାଇନର": 38847,
  "atri": 20953,
  "▁ବିଶ୍ୱସନୀଯ": 39060,
  "ogram": 71878,
  "▁ହଜାର": 2714,
  "▁limited": 7963,
  "▁ଶିକ୍ଷଯିତ୍ରୀଙ୍କ": 53176,
  "▁that?": 24879,
  "▁postpone": 16311,
  "▁କାରିଗର": 24102,
  "ମ୍ପୁ": 20409,
  "▁peop": 8515,
  "▁recruitment": 28975,
  "▁form,": 25374,
  "▁ଲିଫ୍ଟ": 32074,
  "▁ମାରୁତି": 40538,
  "▁Hier": 58009,
  "▁Harmonisation": 72585,
  "▁ଏବିଭି": 43988,
  "ଧାରଣା": 24886,
  "▁ମଜଦୁର": 56135,
  "ବସର": 57303,
  "▁joined": 16220,
  "an.": 12205,
  "▁po": 4745,
  "କକ": 46591,
  "▁ସଠିକତାକୁ": 57217,
  "▁ପାଢ଼": 29848,
  "▁ସାଙ୍ଗସାଥୀ": 66155,
  "ମନ୍ତ୍ରୀ": 1669,
  "▁କଚା": 38351,
  "୯ଙ୍କ,": 58463,
  "▁Ib": 50927,
  "▁ନାମ,": 39685,
  "▁ନାମିତ": 19115,
  "▁ଓ୍ବାଶିଂଟ": 64915,
  "▁ବିଶ୍ଵାଳ": 65432,
  "▁untenable": 61861,
  "ly": 1098,
  "communic": 13478,
  "▁sulph": 30255,
  "▁ଯୋଗାଡ଼": 30181,
  "▁ସ୍ଲାଇ": 40346,
  "▁Merk": 29360,
  "ଙ୍ଘର": 55628,
  "▁ମୂଷ": 40824,
  "▁enterprises": 8964,
  "▁ବ୍ଯାଟ": 30718,
  "ives,": 6983,
  "▁Jews": 50036,
  "▁ଆହ୍": 20871,
  "ଫ": 586,
  "etary": 5225,
  "▁union": 7151,
  "▁ଆନୁଷ୍ଠାନିକ": 21432,
  "▁PN": 26331,
  "▁ODA": 74492,
  "ିକାଶ": 32778,
  "▁patent": 10730,
  "▁Ca": 16073,
  "▁stages": 19966,
  "▁Mercosur": 23732,
  "▁resettle": 32056,
  "os": 1237,
  "▁ହୀରା": 9875,
  "▁ଉପଶମ": 27078,
  "▁ବିଏମ୍‌ସି": 24828,
  "▁Education,": 28912,
  "ez": 31838,
  "▁(୨": 8034,
  "▁vod": 47789,
  "▁ମର୍ଯ୍ଯା": 22233,
  "▁ନାସା": 31737,
  "▁ତୁମେମାନେ": 50234,
  "▁happy,": 67275,
  "6,": 4733,
  "୍ରାମିଂ": 73475,
  "▁ନାଗରିକମାନଙ୍କୁ": 65729,
  "▁nuclear": 4914,
  "ମେବ": 71421,
  "▁ଡିପୋଜି": 34789,
  "▁Penal": 72546,
  "▁ଆର.ପି.": 74072,
  "▁ଘର": 2104,
  "▁ମହାନିର୍ଦ୍ଦେଶ": 68073,
  "▁ହୋହା": 50979,
  "▁ସାମାଜିକ,": 47839,
  "▁How": 2331,
  "▁ଯୂ": 60656,
  "▁faith,": 56159,
  "▁ଭବିଷ୍ଯବାଣୀ": 23893,
  "gery": 59281,
  "▁ଗାଡି,": 74633,
  "▁ଠାକରେ": 48497,
  "▁Kitt": 63052,
  "▁ଶ୍ରେଣୀଯ": 68598,
  "▁hours.": 28753,
  "wikipedia.": 45027,
  "▁ସଫଳତା:": 72813,
  "▁ବିଧାନସଭାକୁ": 38831,
  "▁କହିଲେ": 2555,
  "▁May.": 24272,
  "ପ୍ର": 1646,
  "।\"": 14157,
  "▁ମହାବନ୍ଦ": 56067,
  "▁backing": 18906,
  "ଣ୍ଟିଲେ": 39679,
  "କୂଲ୍ଯରେ": 20171,
  "▁House:": 65973,
  "▁ତଥ୍ଯରୁ": 38307,
  "▁ଜିନ": 28199,
  "▁ଦୈନଦିନ": 74888,
  "▁ଗର୍ଭାବସ୍ଥା": 49668,
  "▁engine": 17275,
  "▁foremost": 12707,
  "▁earning": 48881,
  "▁supr": 21638,
  "▁ପୃଥିବୀ": 10486,
  "ୋତି": 7547,
  "୩୭": 11170,
  "୍ରମଣ୍ଯ": 30444,
  "▁poultry": 30082,
  "▁ହାଡ": 33977,
  "▁ଭୋଜିରେ": 45249,
  "ହିନୀ": 7755,
  "ଟିପିସି": 46101,
  "▁affords": 66363,
  "▁୩:": 39359,
  "▁Wu": 57071,
  "▁ଗଢିଲା": 73826,
  "▁ଏଷୌ": 70650,
  "▁ଜିସ୍ଯା": 48587,
  "-the": 22927,
  "▁ପଳାଯନ": 37606,
  "N)": 41775,
  "▁ଅମରେଶ": 54802,
  "▁Liber": 10808,
  "ସିକା": 45751,
  "▁\"କିନ୍ତୁ": 55668,
  "▁ପଡ": 3327,
  "▁substantial": 7229,
  "▁ଜାଣିବାର": 41620,
  "▁ଚାହୁଁଛନ୍ତି।": 40371,
  "▁ବୋଇତ": 48148,
  "▁ଉତ୍ସବକୁ": 23840,
  "▁planned,": 48732,
  "▁ମଞ୍ଜ": 8505,
  "▁କୃଷିଋଣ…": 58410,
  "▁principles:": 56327,
  "▁ଇଲେକ୍ଟ୍ର": 12983,
  "▁missile": 52628,
  "ଗୁଡିକରୁ": 74177,
  "ting": 3006,
  "▁rival": 39353,
  "▁ବାଇକକୁ": 49057,
  "ി": 717,
  "▁does": 2379,
  "▁Beh": 57423,
  "ଲିଟର": 31661,
  "▁କେରଳରେ": 14938,
  "▁ବର୍ଷିଅ": 46152,
  "ମାହା": 72703,
  "▁ସିମ": 21662,
  "▁ଖ୍ରୀ.": 37470,
  "▁ପକ୍ଷରେ": 17353,
  "▁ଞ": 43080,
  "▁ଦେଖାଯାଉଛନ୍ତି": 70478,
  "▁rating": 16004,
  "▁marria": 24652,
  "▁Agreement,": 21272,
  "▁dra": 2534,
  "aper": 22900,
  "▁ସନ୍ନ୍ଯାସୀ": 37073,
  "▁ମହାସଭା": 69276,
  "pri": 3382,
  "▁value": 5510,
  "▁ଜାଳି": 15872,
  "▁eradicate": 28563,
  "▁medic": 7999,
  "▁ପ୍ରଚଳିତ": 17368,
  "ଂଗ୍ରାମ": 44373,
  "▁ପଣିଆ": 45163,
  "▁focus,": 53589,
  "▁ମାଆର": 31814,
  "▁originated": 59990,
  "▁Malta": 21756,
  "▁ତୈମୁର": 42366,
  "ାଯାଇପାରେ": 65960,
  "▁ଏକସଙ୍ଗେ": 70729,
  "▁spoil": 72757,
  "▁ପଡେ।": 68243,
  "▁ଅଙ୍ଗୁ": 24507,
  "▁ଜ୍ୱର": 10443,
  "▁annoy": 40679,
  "ପୋର୍ଟରେ": 41045,
  "▁ଚଳାଇଛି।": 26598,
  "▁ସହରମାନଙ୍କରେ": 66000,
  "ମ୍ବଲପୁର": 28204,
  "ail": 2427,
  "▁(h": 46496,
  "anty": 72676,
  "▁Net": 20989,
  "▁Nord": 16484,
  "▁କ୍ରୀଡାବିତ": 72136,
  "▁ବିଦ୍ୱ": 65370,
  "▁ଗୁଜୁର": 46305,
  "ଧ": 582,
  "ପାହାଡ଼": 47756,
  "▁ଏକାଦଶ": 19875,
  "▁ଚାମ୍ପିଅନ୍‌": 72110,
  "▁15,": 8724,
  "▁nomination": 42053,
  "୍ରାଇଟିସ": 71272,
  "ବିକ୍ଷୋଭ": 55358,
  "▁ଇ-ରିକ୍ସା": 73278,
  "▁ଉମେଶ": 26093,
  "▁ଧୋନିଙ୍କ": 30595,
  "▁murderers": 69454,
  "▁ratified,": 46051,
  "▁ret": 4370,
  "▁ମୃତ୍ଯୁ;": 61449,
  "ential": 2654,
  "▁opportunity,": 21130,
  "▁ବନ୍ଧ": 6828,
  "▁ଭାଙ୍ଗିରୁଜି": 63121,
  "▁ସିଗ": 31775,
  "▁Orbonix": 62001,
  "▁described": 11686,
  "▁ଅଟଳଙ୍କ": 65748,
  "▁ମାଲକାନଗିରିରେ": 19989,
  "▁water.": 22803,
  "iferation": 15928,
  "▁divided.": 65164,
  "▁ଯୌବନ": 45574,
  "▁Khan": 66691,
  "▁ଆଣ୍ଟିବ": 71326,
  "▁measured": 24338,
  "▁କାଳହସ୍ତୀ": 38090,
  "▁ପୂର୍ବଭଳି": 37873,
  "▁କହିବେ।": 62781,
  "▁ରଖା": 29028,
  "▁unden": 27642,
  "▁ଅତ୍ଯୁ": 41479,
  "୍ଯବହାର": 20949,
  "▁players,": 41810,
  "▁Alread": 45678,
  "ମୂଳେ": 59802,
  "▁sal": 8250,
  "85": 73500,
  "▁ships,": 44184,
  "▁interoperability": 28300,
  "-K": 30251,
  "▁1985": 57439,
  "ପକାର": 58909,
  "▁euro.": 17213,
  "▁subsidiarity.": 20737,
  "▁ପିଲ୍": 62720,
  "▁ବିରାଜିତ": 72549,
  "ு": 679,
  "▁ଅହଂ": 28359,
  "▁ବାତ୍’ରେ": 74822,
  "▁future;": 68215,
  "▁ହୁଅନ୍ତି,": 31442,
  "▁ପିଟୁଥିବା": 72910,
  "▁Weber,": 71099,
  "-tra": 44979,
  "▁routes.": 51277,
  "ଦୋକ": 47098,
  "▁ନାବାଳକଙ୍କୁ": 57137,
  "▁ଡାଳରେ": 56187,
  "▁Toubon": 68842,
  "▁ଫେଯାର": 40820,
  "▁ବିଧାଯକମାନଙ୍କୁ": 59248,
  "ipped": 22283,
  "▁ଲାଇଟ୍‌ସ୍‌ମ୍ଯାନ୍‌,": 69546,
  "▁ଅଭିନବ": 15131,
  "▁depressing": 53116,
  "▁ଉଦ୍ଧାରକାର୍ଯ୍ଯ…": 58866,
  "▁ଆଯର୍ଲାଣ୍ଡ": 61366,
  "▁ମହାସ": 14627,
  "▁କେଉଁଭଳି": 67906,
  "▁Program": 8022,
  "▁ଖୋଦ୍": 30637,
  "▁ହସ୍‌ପିଟାଲ": 49209,
  "▁ବ୍ର": 3489,
  "ନ୍ଧ୍ର": 5125,
  "▁ଉଦ୍ଧାରକାରୀ": 32275,
  "ality": 2468,
  "▁free,": 32612,
  "elect": 51392,
  "▁କରିବା,": 12814,
  "▁fanaticism": 70619,
  "▁ନମ୍ବର": 3972,
  "▁ଟିଟୋର": 24450,
  "▁wr": 4967,
  "▁ହୋଇସାରି": 14792,
  "▁ଜଳେ": 49890,
  "▁creative": 19972,
  "▁ବି.ଓ.": 44770,
  "▁validity": 29676,
  "▁horrendous": 45270,
  "▁lost,": 47177,
  "▁ପୁର୍ନବାର": 74352,
  "▁ସିଡିଏମ": 63807,
  "9.": 22669,
  "▁ଗୋଳ": 18922,
  "ଷ୍ଟିକ୍‌": 38516,
  "▁ଲୋମଟାଙ୍କୁ": 35075,
  "▁ବ୍ଯାଙ୍କଗୁଡ଼ିକ": 57379,
  "▁ବଚ୍ଚନଙ୍କ": 27807,
  "▁ବଜର": 27455,
  "ନ୍ତ୍ର": 2032,
  "▁rescue": 24044,
  "▁tariffs": 27009,
  "ଥୁବା": 33328,
  "▁ବାର୍ଷିକୀ": 42435,
  "▁ମଂଗଳ": 36110,
  "▁ଅଳେଇଚ": 54586,
  "aton": 56827,
  "▁ammunition": 70653,
  "▁apolog": 16757,
  "▁ଉଚ୍ଚ": 3530,
  "▁ଲାଭା": 41088,
  "▁ସାମ୍ରାଜ୍ଯର": 47323,
  "▁approximate": 69064,
  "▁60th": 69065,
  "eed": 73506,
  "ିକିଆ": 7289,
  "▁୨/୩": 51418,
  "▁୧୦୦ରୁ": 20915,
  "ଡିବ": 23194,
  "dot": 34175,
  "▁front.": 50258,
  "ଦ୍ଧାର": 3038,
  "rict": 4158,
  "▁ପତ୍ର,": 31520,
  "▁ଲାଇନ୍‌ଚ୍ଯୁତ": 52349,
  "▁କୁନ୍ଦ": 55416,
  "▁significance,": 51780,
  "irds": 22299,
  "▁FM": 34696,
  "▁ସୋପାନ": 33868,
  "ଲିପ": 21921,
  "▁ରହିଥାଏ।": 14338,
  "▁କହିଥିଲେ।": 9275,
  "▁ଛାଞ୍ଚ:C": 37058,
  "▁ଅର୍ଥବ୍ଯବସ୍ଥା": 45017,
  "▁ଆନନ୍ଦଦାଯକ": 64821,
  "▁ଡାକରାରେ": 66776,
  "▁j": 1520,
  "▁କେନ": 68900,
  "▁asked,": 42216,
  "▁shadow": 11313,
  "▁intact.": 71378,
  "▁organizing": 56972,
  "▁cost": 3311,
  "▁ଯଦି": 2643,
  "wards": 3207,
  "▁be:": 59917,
  "pped": 14706,
  "▁provision,": 38223,
  "▁Klaß": 59121,
  "▁Canad": 13117,
  "▁ପାଇଲା,": 64451,
  "ମାନନ୍ଦ": 16368,
  "▁possession": 29448,
  "▁ସୀମାନ୍ତ": 21791,
  "▁ବାଲାନ୍ସ": 29648,
  "▁1993.": 50820,
  "▁ମିଳେ।": 26621,
  "▁supermarket": 33609,
  "▁ଖୁସି,": 63688,
  "▁all-out": 67854,
  "▁game,": 60304,
  "▁ବିତିଗଲାଣି": 70522,
  "ద": 684,
  "▁ବାକ୍": 64180,
  "▁ଯୁନିଭର୍ସିଟି": 37681,
  "▁applications,": 49603,
  "▁mobile": 15715,
  "ହରା": 15300,
  "ered.": 23319,
  "hrkop": 39407,
  "କିଙ୍ଗ୍": 56047,
  "▁Ribe": 44019,
  "▁(short": 63252,
  "େଇଁ": 10484,
  "▁କୋର୍ଟରୁ": 59514,
  "▁ନହେବାରୁ": 40062,
  "▁ଭବିଷ୍ଯ‌ଦ୍‌": 25941,
  "▁Science": 51859,
  "▁amount": 4817,
  "▁free-trade": 40831,
  "apers": 18542,
  "▁limitations": 28489,
  "▁somebody": 30096,
  "▁Cresson": 68814,
  "▁ଘେରାଉ": 13133,
  "▁·": 22852,
  "▁obtained,": 72394,
  "▁attitud": 16115,
  "▁,ଯକୃତ": 29367,
  "▁ଅଚାନକ": 16642,
  "ling,": 27868,
  "▁ଅଜବ": 13995,
  "▁Parliament": 1496,
  "▁clon": 19352,
  "ମ୍ଭମାନେେ": 68189,
  "ground": 10988,
  "▁ଓଡ଼ିଶୀ": 18683,
  "ised,": 11578,
  "egrated": 39859,
  "ୋଡ": 35840,
  "▁'d": 21676,
  "▁intensive": 14141,
  "ଟାପନ୍ନ": 23337,
  "▁ହାଣ": 48427,
  "▁ମହାରାଜ,": 72921,
  "ତ୍ଯାଗ": 25494,
  "▁ଏଥୁ": 58233,
  "▁ଗତମାସ": 61205,
  "ପିଏମଜେଏୱାଇ": 54175,
  "ୂଳେ": 70804,
  "▁ଅର୍ଜିତ": 57395,
  "୍ର": 1031,
  "▁renewables,": 72387,
  "▁factor": 7767,
  "▁ଦଳି": 27320,
  "▁୧୫୦ତମ": 54722,
  "▁ପ୍ରତାର": 6440,
  "iana": 69652,
  "ନିକର": 71940,
  "▁Talib": 25135,
  "▁ମରିଯମ": 47444,
  "▁gentlemen,": 2790,
  "ଲ୍ଯାଣ୍ଡ": 21054,
  ".ଏମ୍.": 48265,
  "ଥିବେ": 8859,
  "▁ଭରସାରେ": 40292,
  "▁d'état": 68116,
  "▁guarantor": 52945,
  "▁preparation": 12678,
  "ଲିଆ,": 40682,
  "▁ଶିଶୁପୁତ୍ରକୁ": 50591,
  "▁ତାଲି": 48834,
  "▁lament": 31886,
  "▁ପିଭି": 53263,
  "▁ରୋଗୀଙ୍କ": 10713,
  "▁୪ହଜାର": 62194,
  "▁ଗୃ": 15935,
  "▁pigs": 48786,
  "▁EAS": 59174,
  "▁ନିର୍ଦ୍ଦେଶିତ": 22660,
  "▁ଆସନକୁ": 59946,
  "▁Herzegovina.": 64091,
  "ଅଭି": 16019,
  "▁ବିଭ୍ରାନ୍ତିକର": 54392,
  "ସ୍ରା": 17102,
  "ପାରାଦୀପ": 57509,
  "ଭେନ୍ଦ୍ର": 72324,
  "▁shipping,": 64892,
  "▁brake": 53026,
  "▁Monti,": 47746,
  "▁ତେର": 40749,
  "▁deposit": 36876,
  "▁ବିଚ୍ଛେଦ": 31345,
  "ସିଆରେ": 57374,
  "ieve": 1839,
  "▁junior": 54370,
  "▁weakness": 15729,
  "ର୍ସର": 48301,
  "▁ମେଘ": 13739,
  "▁ଦକ୍ଷତା": 9102,
  "▁facts.": 27658,
  "▁ବୋମ": 20077,
  "▁୩୨ଟି": 44636,
  "▁ଫେସବୁକର": 42927,
  "▁ହୋଇଯାଇଛି।": 6442,
  "cile": 22125,
  "ଡାଲ୍": 65041,
  "ଞ୍ଚାଇ": 44596,
  "▁ନାରାଯଣୀ": 69170,
  "▁presupposes": 43902,
  "ଂଜନ": 8710,
  "▁ଭଙ୍ଗ": 11560,
  "▁accompanying": 25663,
  "▁classification": 26953,
  "arb": 51238,
  "iterran": 6101,
  "ୀଯମାନଙ୍କ": 66533,
  "▁favoura": 38210,
  "▁କିରି": 66226,
  "▁Pri": 33584,
  "▁ଖାଉଛି": 35878,
  "▁ସ୍ୱଛ": 26755,
  "▁କବିତାର": 37406,
  "▁recognising": 20181,
  "▁ମଜୁରି": 45858,
  "▁ଉଜ୍ୱଳା": 44667,
  "▁ଫେଷ୍ଟିଭ": 57923,
  "▁linked.": 61480,
  "ତଙ୍କବାଦୀ": 71548,
  "କ୍ରିଷ୍ଣ": 37594,
  "development": 39331,
  "ét": 41778,
  "▁declarations.": 57662,
  "▁୪୧ଟି": 68031,
  "▁committee,": 12322,
  "▁ସେବାଯତଙ୍କୁ": 39947,
  "▁ଥିଲି।": 44914,
  "▁ମୁଦ୍ରାସ୍ଫୀତି": 69182,
  "ନ୍ଦିରେ": 65912,
  "▁identifying": 22679,
  "▁spons": 31411,
  "କାର": 1304,
  "▁sn": 30958,
  "▁ingredients": 27312,
  "▁ବିବେକାନନ୍ଦଙ୍କ": 47081,
  "ାବୃତି": 65596,
  "▁appreciate": 11151,
  "▁ଯିବ": 11052,
  "▁ମାସେ": 24109,
  "▁suppliers.": 60829,
  "▁religions.": 72933,
  "▁କଲମ୍ବୋ": 57606,
  "▁ଗ୍ରାମବାସୀଙ୍କୁ": 38101,
  "▁cris": 2984,
  "▁ପରିଜନମାନଙ୍କ": 53038,
  ".୧୮": 49850,
  "▁ଜାକି": 61453,
  "▁relative": 10143,
  "▁ଅନୁଯାଇ": 48200,
  "▁ଗୋଳିଆ": 73599,
  "‍‍": 70681,
  "▁ସଂପୂର୍ଣ୍ଣ": 7522,
  "▁co-decision": 36862,
  "▁Ukraine.": 22778,
  "ୣ": 637,
  "▁ଉପାଦେଯ": 16823,
  "▁orientation.": 43883,
  "▁pollute": 53708,
  ".୩": 24874,
  "▁smuggled": 70937,
  "▁ଜୁନାଗଡ଼": 55971,
  "▁ବନିଥିବା": 70923,
  "▁ବନ୍ଯାଜଳ": 30739,
  "▁ଚୀନରେ": 16326,
  "▁lend": 19811,
  "▁ବିଶ୍ୱ:": 54460,
  "▁ସମାବର୍ତ୍ତନ": 49352,
  "▁ଉଷସୀ": 38932,
  "▁blatantly": 51206,
  "▁ଲ୍ଯା": 14732,
  "▁deportation": 54760,
  "heug": 17511,
  "▁ଲାବ": 27996,
  "▁ଇଲେକ୍ସନ": 74681,
  "▁ବଢାଇବାକୁ": 42007,
  "▁Lisbon,": 15760,
  "ଟସ୍": 64417,
  "▁ଚାଇନିଜ": 73346,
  "▁ଦୁଃ": 4732,
  "ai": 11061,
  "େପ": 3271,
  "▁ଓଡ଼ିଶା):": 21267,
  "▁ଉତ୍‌": 27788,
  "▁ପ୍ରଶିକ୍ଷିତ": 54328,
  "▁୨୦ଜଣ": 55419,
  "▁ବ୍ଯାପୁ": 57814,
  "▁impract": 58022,
  "(ବ୍ଯୁରୋ": 12022,
  "cott": 31106,
  "▁ତାକୁ": 4114,
  "▁୨୦୧୬-୧୭ରେ": 49481,
  "▁ଫର୍ମୂ": 58115,
  "୨୫ସାଲ,": 58573,
  "▁ଚମ୍ପିଆନ": 61836,
  "▁2008,": 17666,
  "▁remind": 5734,
  "ourage": 8511,
  "▁ଜିଆଇ": 29179,
  "▁non-European": 40839,
  "ନ୍ତନ": 53623,
  "▁ବିଲ୍‌କୁ": 53935,
  "▁unworthy": 59815,
  "▁କାରାଦ": 19369,
  "▁ସନ୍ତାନମାନଙ୍କର": 71992,
  "▁obvious.": 37343,
  "▁carer": 74595,
  "▁ତରୁଣୀ": 57025,
  "▁ମନ୍ଦା": 48298,
  "ପୂଣ୍ଣ": 74181,
  "▁Ribeiro": 44792,
  "▁୭୬": 12228,
  "▁ବିସ୍ପୋରଣ": 46656,
  "▁Budap": 45377,
  "▁ଦାବି": 2905,
  "ଯାଆନ୍ତି": 37107,
  "▁ଶାଗୁଆ": 45253,
  "▁ତିଳେ": 40181,
  "▁kind.": 22465,
  "▁umb": 37622,
  "▁women's": 13525,
  "▁ଆନ୍ଦୋଳନକାରୀମାନେ": 58325,
  "▁represented,": 68231,
  "▁Europa": 73557,
  "▁ପାନୀଯ": 9511,
  "▁ଘୋଷାକଥା": 49217,
  "▁ନିତ୍ଯେ": 43555,
  "▁ଷ୍ଟାଫ": 50388,
  "▁କଲମରେ": 58058,
  "▁ନରସିଂହ,": 65772,
  "▁representative,": 43754,
  "▁ଅମିତଙ୍କ": 60253,
  "▁adopts": 29767,
  "▁ଦେଖାଯିବ": 25775,
  "▁ମେଶିନ": 70252,
  "ech": 2277,
  "▁Bolk": 21686,
  "▁ପିନ୍ଧିଥିବା": 33616,
  "▁ଫୋପାଡ଼ି": 38783,
  "▁spirit.": 41381,
  "▁ଗେଟୱେ": 25688,
  "ନିଙ୍କ": 46623,
  "▁ରାଜା": 4607,
  "▁dogs": 60839,
  "vernight": 35785,
  "▁June": 5434,
  "▁attend": 14128,
  "▁କରାଯିବ।": 7016,
  "ice.": 62196,
  "▁କେନ୍ଦ୍ରବିନ୍ଦୁ": 36261,
  "▁ଅତ": 9616,
  "▁'ଅ": 47944,
  "▁barbar": 28787,
  "▁ଗହଳିରେ": 60018,
  "▁revealed": 22986,
  "▁retrog": 54303,
  "▁Contact": 55931,
  "▁ହିଜ୍‌": 74095,
  "▁କିଡନୀ": 14764,
  "▁militar": 24919,
  "▁ଯୁନିଯନ": 41286,
  "▁Airbus": 45003,
  "▁ଶିଖନ୍ତୁ": 67948,
  "▁correct": 5693,
  "▁ବିବ": 6616,
  "ଙ୍କ,": 21198,
  "▁equally,": 54280,
  "▁Daphne": 34121,
  "▁features,": 72489,
  "ଇଥାନ": 18447,
  "▁ହାରାହାରି": 18760,
  "ones,": 35970,
  ",୨୦୦": 36769,
  "▁(SL)": 30173,
  "(ଏଏଫ୍‌ପି)-": 47204,
  "▁ଖବରର": 58275,
  "▁non-commercial": 58535,
  "▁territor": 7122,
  "▁roads,": 39783,
  "▁କରିଦିଆଯାଏ": 60817,
  "▁opportun": 43019,
  "▁expectancy": 34499,
  "▁border,": 36851,
  "▁take": 1933,
  "▁ଓଲା": 45883,
  "▁ଲାଇଭ୍": 36755,
  "▁ହରିଦ୍ୱାର": 54494,
  "▁story,": 58130,
  "▁auctioning": 59859,
  "ଓ୍ଵାନ୍‌": 60030,
  "▁ହେଇଛି": 27303,
  "▁ଆର୍ଟିଷ୍ଟ": 69503,
  "▁particles": 71122,
  "▁ଟ୍ୱିଟରେ": 56734,
  "▁ଜାଗାରୁ": 69366,
  "▁ଯମ": 22030,
  "▁‘ଭାରତ’": 61571,
  "▁….": 30939,
  "oned": 40245,
  "▁week’s": 72357,
  "▁ଦେଶଜ": 37440,
  "▁କମ୍ପ୍ଯୁଟର୍‌ରେ": 67005,
  "ଖାଇ": 9156,
  "ନାନ": 9716,
  "🗃": 980,
  "▁ପିଇଲେ": 9515,
  "▁ବିଶ୍ୱର": 7103,
  "▁(vote)": 17732,
  "▁କୁମ୍ବଲେ": 67140,
  "▁ଅତିଷ୍ଠ": 39140,
  "ַ": 386,
  "▁ଜଳିଗଲେ": 24821,
  "▁ରୋମିଓ": 42737,
  "▁ଭଳି।": 52103,
  "ଏଆଇ": 38561,
  "▁emergency,": 63741,
  "▁ଚେଷ୍ଟା": 6036,
  "ପୂର୍ବରୁ": 20567,
  "lene": 37996,
  "ଶନିବାର": 47974,
  "▁ଏହିଠାରୁ": 54237,
  "▁ପରଦାର": 55629,
  "▁Chile": 23402,
  "▁୧୦୦୦": 9566,
  "ୋରା": 25049,
  "ରୂ": 39739,
  "▁ସତିଗୁଡା": 46853,
  "▁woman.": 68318,
  "ଲର୍‌ଡ": 70597,
  "▁ମହାଭି": 29764,
  "ରାଜନୈତିକ": 61092,
  "▁ବିଶେଷଜ୍ଞମାନଙ୍କ": 70118,
  "▁cannot,": 18212,
  "କାଂ": 14304,
  "ଏଫ୍‌": 12040,
  "▁ମିଳିଯିବ": 35042,
  "▁Mol": 41693,
  "▁ଭାଇର": 13591,
  "▁ଡଟ୍": 21334,
  "ڑ": 421,
  "▁ଡ଼ାକ୍ତରଖାନା": 42158,
  "▁ମୁନ୍ନା": 45289,
  "▁ପାଉ": 5291,
  "▁ଜାବୁଡ଼ି": 55366,
  "▁community.": 17008,
  "ାମେଣ୍ଟ": 30774,
  "ଗତିରେ": 32858,
  "▁ରହିଯାଏ": 60920,
  "▁impressive": 25883,
  "▁ଧଉଳି": 33020,
  "▁Health": 8182,
  "▁ତପସ୍ଯା": 32263,
  "▁users.": 33159,
  "ତାଲ": 50332,
  "▁var": 3438,
  "ମ୍ପର": 8830,
  "▁ଧର୍ମନିରପେକ୍ଷ": 57114,
  "▁ଧିମା": 65249,
  "▁ଡାକ୍ତରଖାନାର": 41470,
  "▁ଚନ୍ଦାପଣ": 73910,
  "▁ଝିଅଟା": 74119,
  "ଜମି": 24165,
  "▁‘ଜଗନ୍ନାଥ’": 52546,
  "▁Process,": 54580,
  "▁ପାରିନି": 61696,
  "▁ଚେସ୍‌": 47682,
  "▁Ast": 72217,
  "▁Lewand": 56000,
  "▁completion": 17580,
  "ଡ଼ଘ": 19930,
  "▁mast": 23716,
  "▁ଧନିଆ": 20449,
  "▁ଆନ୍ଦୋଳନ,": 44396,
  "▁‘ଯ": 26971,
  "▁declaration": 10230,
  "▁ନେଇଥାଏ": 45652,
  "▁fascist": 59115,
  "▁ଆସବାବ": 31311,
  "▁areas:": 36837,
  "▁sacrificing": 54363,
  "▁Gibraltar": 50124,
  "▁politically,": 42116,
  "▁concessions,": 63473,
  "▁despair": 35389,
  "▁produced.": 37252,
  "▁ଟ.": 37633,
  "▁participation.": 36469,
  "ary.": 40905,
  "▁ଘଟାଇବା": 44372,
  "▁ପିଟିଆଇ": 61264,
  "esh": 20802,
  "▁destructive": 33768,
  "▁session.": 32245,
  "▁less,": 38435,
  "▁ପ୍ଯାକେଟ୍‌": 56119,
  "▁hand,": 5308,
  "ଦେଇଥିଲେ": 35310,
  "▁formulating": 40221,
  "▁predecess": 23711,
  "▁cooperation,": 9891,
  "▁reassured": 43150,
  "ux": 22615,
  "ମିଓ": 27780,
  "▁Were": 50638,
  "▁ହାଫିଜ୍‌": 63218,
  "▁look,": 67580,
  "▁ପ୍ରତିପାଦନ": 48026,
  "▁ଆନନ୍ଦ,": 66024,
  "▁reciprocity": 33331,
  "ଗସ୍ତ": 41240,
  "▁ଏସ୍.": 38777,
  "▁ଗାର୍ଡ": 23605,
  "▁ଗୁଟକା": 60173,
  "▁km2": 71348,
  "▁ଶତୃ": 33407,
  "▁କମିସନ୍‌": 38985,
  "▁Europeans,": 20976,
  "▁ଗଂଜେଇ": 31228,
  "▁ଆଣିଛି": 19385,
  "iver": 6103,
  "▁ନିରଜ": 65688,
  "▁୧୫୨": 57834,
  "▁d'E": 41945,
  "▁requiring": 20656,
  "▁ରୁଷ": 17735,
  "▁ଚିରକାଳ": 59579,
  "▁criminalisation": 70447,
  "▁ଯିବାପରେ": 71203,
  "▁humiliating": 52214,
  "▁ମଶ": 19945,
  "ମେଣ୍ଟ୍": 39596,
  "ibb": 23651,
  "▁ସମିତି,": 56551,
  ",।।": 66190,
  "▁demonstrate,": 71571,
  "▁ଅମୀଯ": 29500,
  "ଲୋଭା": 46399,
  "▁ଧରଣର…": 56357,
  "▁ଦୀର୍ଘାଯୁ": 68638,
  "ଟିପି": 17855,
  "M,": 73504,
  "▁Code,": 74350,
  "▁ଗଠନ,": 64270,
  "▁ସିଂହଙ୍କର": 67284,
  "▁ନକ୍‌": 74443,
  "▁wondering": 33374,
  "▁bin": 70688,
  "▁ଅପଲୋଡ": 40583,
  "ସ୍ଥଳେ": 33859,
  ".ଏମ.": 44677,
  "▁denying": 28783,
  "ଜଜ୍": 50771,
  "ED": 38272,
  "▁ଅଲୋଡ଼ା": 49986,
  "▁Congress": 24373,
  "▁panacea": 65543,
  "▁ଦେବୀଙ୍କୁ": 46512,
  "▁execut": 49635,
  "▁‘ମା": 60172,
  "▁deficiency": 63657,
  "ic.": 18021,
  "▁Valle": 45671,
  "ଚେରି": 31678,
  "▁ବଯଫ୍ରେଣ୍ଡ": 41174,
  "▁ସମ୍ଭ୍ରାନ୍ତ": 56561,
  "▁‘ଜାଗା": 67865,
  "▁ତଉଲୁ": 50598,
  "▁ଇଣ୍ଡୋନେସିଆ": 24521,
  "▁rulers": 68601,
  "▁ଉପ-ନିର୍ବାଚନ": 38501,
  "▁ନିର୍...": 53846,
  "▁rationale": 40615,
  "▁କମିଶନରଙ୍କ": 37913,
  "▁overtime": 66724,
  "▁ଢାଲ": 35705,
  "▁ଇତି": 5198,
  "▁ନେଟୱାର୍କ": 38930,
  "▁କାନି": 60136,
  "▁formally": 19624,
  "▁seen,": 32600,
  "Ú": 170,
  "ୂଳ": 3625,
  "▁thankful": 66273,
  "efe": 34953,
  "▁ଖେଳିଯାଇଛି": 41741,
  "▁man's": 70346,
  "▁ପରିତ୍ଯାଗ": 25619,
  "ଡେ": 3527,
  "▁ଯାକର": 71876,
  "ନାଇଟେ": 35571,
  "▁endeavours": 28843,
  "▁ଦିନିକିଆରେ": 23993,
  "▁ଆର୍ମ": 46371,
  "▁ନଦୀ,": 44273,
  "▁sanctions,": 27007,
  "▁ମାଁ": 32875,
  "▁ଷ୍ଟଲ": 41995,
  "-ଜି": 71029,
  "▁ଲେମ୍ବୁ": 15206,
  "▁Cuba,": 31597,
  "▁ନାମେ": 41716,
  "▁until": 5280,
  "▁ବିଳମ୍ବ": 6611,
  "▁Louis": 55371,
  "▁overr": 55650,
  "▁B5-00": 57343,
  "▁ନମ୍ବରର": 47034,
  "ବର୍ଷା": 30430,
  "▁Kro": 44250,
  "ପାଯୀଙ୍କୁ": 58444,
  "▁ରାଷ୍ଟ୍ରପତିଙ୍କୁ": 32898,
  "unist": 57986,
  "ଟ୍,": 13552,
  "▁autom": 10726,
  "▁adoption,": 47048,
  "▁ଓରାମ୍": 61149,
  "▁ଜିଲ୍ଲା,ଓଡିଶା": 50737,
  "▁eleg": 68514,
  "ତିଙ୍କ": 33579,
  "▁ରେଡ୍ଡ": 64897,
  "▁ଶାଶ୍ୱ": 52433,
  "▁ଭଲ": 2500,
  "▁ଭଯାବହ": 18693,
  "।ର": 28943,
  "ୌଦ୍ଧ": 7290,
  "ଶେଷରେ": 36924,
  "ଚ୍ଚା": 46156,
  "▁ବନ୍ଧକ": 47166,
  "▁pitiful": 69504,
  "▁was:": 71107,
  "▁proximity": 40981,
  "▁ଅଚଂଳ": 66439,
  "ଟିକ୍": 25055,
  "▁୫-୧ରେ": 51904,
  "▁regime,": 22632,
  "▁ମାସରେ": 6197,
  "▁୧୯୫": 12332,
  "▁ପରାକା": 55914,
  "▁ଆଇସିଆଇ": 33046,
  "ଡ଼ିକି": 63952,
  "▁ଦାମ,": 70819,
  "▁୭ଗିରଫ": 46406,
  "▁ଏସିଆନ୍": 34442,
  "▁ବେକାରୀ": 27848,
  "▁ପାସ୍‌": 11387,
  "▁ବାଜପେଯୀଙ୍କ": 11478,
  "AN": 11216,
  "▁fishing.": 27852,
  "/-": 34349,
  "▁feature": 19266,
  "▁comparisons": 53165,
  "ଗଲେ": 4339,
  "▁ଭୂତାଣୁ": 22468,
  "▁ରଥଯାତ୍ରାର": 43848,
  "▁stability,": 17738,
  "▁rout": 31477,
  "judicial": 44545,
  "OC": 51072,
  "▁Subhas": 63733,
  "▁ପ୍ରଣାଳୀ": 13057,
  "▁evaluation": 9873,
  "▁ପୁଅପାଇଁ": 55242,
  "▁aiming": 20686,
  "▁Generally": 45387,
  "▁apparat": 43194,
  "▁ପିପୁଲ୍ସ": 58892,
  "▁କବଜାରେ": 52300,
  "▁Colombia": 28460,
  "▁ରାଜନେତା": 14705,
  "▁1.27": 54511,
  "▁psychological": 24103,
  "▁reminding": 32238,
  "▁Serbian": 22665,
  "▁carriage": 59240,
  "ପ୍‍": 47937,
  "▁ଉପନିର୍ବା": 12326,
  "▁discrimination": 7932,
  "▁themselv": 9206,
  "▁ସ୍ମାର୍ଟଫୋ": 8274,
  "▁clearly:": 68617,
  "▁ut": 7967,
  "▁ଭୃଗୁ": 42059,
  "х": 376,
  "▁ବୋର୍": 7718,
  "▁ପହଞ୍ଚିଥିଲେ": 28901,
  "▁ହୋଇଯାଇଛନ୍ତି": 29542,
  "▁ଗୁଜୁରାଟର": 35173,
  "▁Syria,": 38868,
  "▁ସ୍ମାର୍ଟଫୋନ": 18173,
  "▁ରହିବାକୁ": 8186,
  "-sh": 25703,
  "▁ସଂସାରେ": 38399,
  "▁ministers.": 48897,
  "▁ନଭେମ୍ବରରୁ": 60497,
  "▁ଦରବାରକୁ": 74298,
  "▁ସାପ୍ତାହିକ": 29237,
  "▁UID": 51583,
  "▁ଏକ୍ସପ୍ରେସ୍": 36224,
  "▁capita": 30332,
  "▁hunting": 39727,
  "▁‘ଝୁ": 56657,
  "▁ବସନ୍ତୁ": 68955,
  "▁ଝାଡଖଣ୍ଡ": 34392,
  "▁although,": 38387,
  "▁କରାଯିବାର": 20889,
  "▁ଦିନପରେ": 74063,
  "▁disarma": 43249,
  "▁ଜନଜାତିର": 45904,
  "▁ତଥାଗତଙ୍କ": 71714,
  "▁ହେଇଛି।": 57631,
  "▁ଭାଇରାଲ": 6255,
  "▁Roth-Behrendt": 40787,
  "▁ରାହୁଲଙ୍କ": 11305,
  "▁inappropri": 17847,
  "▁Solana": 23639,
  "ମଂଚ": 70280,
  "hern": 7738,
  "▁ବ୍ଯାଙ୍କ,": 34875,
  "▁ମରୁଭୂମିରେ": 26954,
  "▁tolls": 54753,
  "▁committee'": 70057,
  "▁ନଥିଲା,": 37565,
  "▁ରାଜନୈତିକ": 5413,
  "▁referendum.": 29011,
  "▁ଜ୍ଞାତ": 58834,
  "▁ଖୋଳା": 47041,
  "ଷଣ": 4509,
  "▁କର୍ଣ୍ଣାଟକରେ": 21533,
  "▁ନିଆରା।": 64310,
  "▁ଚିରନ୍ତନ": 67683,
  "▁ଉଲଙ୍ଘନ": 70541,
  "▁ensuing": 56879,
  "/8": 37151,
  "▁କାନ୍ଦି": 13852,
  "▁ସୁଟ": 66857,
  "▁Hec": 63618,
  "▁efficiency,": 20674,
  "▁go-": 59939,
  "▁application,": 39217,
  "▁ହିଟର୍‌ରେ": 62788,
  "▁ପରିଚଯପତ୍ର": 46304,
  "▁gradually": 14889,
  "ିକ...": 52726,
  "▁Baroness": 19633,
  "▁ପ୍ରରୋ": 53621,
  "ы": 379,
  "▁ମଗାଇ": 36098,
  "▁୨୦୧୬-୧୭": 31679,
  "▁ଆଇସିଡ଼ି-୯-ସିଏମ୍": 43176,
  "ITS": 60312,
  "▁video": 35406,
  "▁ଗୋଖ": 63633,
  "▁ବିଳମ୍ୱିତ": 63816,
  "▁ହୋଇସାରିଥିଲା": 69443,
  "▁ମାଲିକାଣୀ": 73282,
  "▁desirable.": 44308,
  "▁Goepel": 59796,
  "▁ନାରାଜ": 38122,
  "▁ପଳେଇ": 49942,
  "amil": 58932,
  "▁Union?": 24381,
  "▁Guantánamo": 32811,
  "▁ନାଭି": 38890,
  "▁କ୍ଷମତାଶାଳୀ": 69726,
  "▁ହୀରାକୁ": 31720,
  "▁ପଶ୍ଚିମା": 44562,
  "▁discont": 47378,
  "ପ୍ଳବିକ": 70182,
  "▁legalise": 74121,
  "▁'H": 38518,
  "▁fascinating": 52514,
  "▁ruth": 46997,
  "▁ରିଟର୍ଣ୍ଣ": 26961,
  "atives.": 13423,
  "▁importantly,": 15542,
  "▁kilomet": 23081,
  "ନାଲରେ": 13875,
  "▁FTA": 43713,
  "▁ରହିବା,": 49469,
  "▁ଧୋକ୍କା": 68807,
  "▁Sub": 9534,
  "▁(ସା": 58251,
  "osition": 70719,
  "▁Treaties,": 24611,
  "anted": 37353,
  "▁vitam": 48141,
  "ାଯିବ": 8402,
  "▁rever": 61627,
  "▁ଦୈ": 7896,
  "▁ସ୍ନେହୀ": 56568,
  "ଙ୍": 1271,
  "ଡ଼ିକୁ": 5252,
  "reland": 5831,
  "▁25th,": 54688,
  "▁theoretical": 32917,
  "▁murd": 16920,
  "▁1.8": 57427,
  "▁Burm": 17367,
  "▁Brenner": 48806,
  "▁Venezuelan": 58623,
  "▁ବିଶେଷ": 3123,
  "▁ଚୋରକୁ…": 34723,
  "ogue": 3920,
  "ର୍ତ୍ତ": 1526,
  "▁କଏଦ୍": 57652,
  "-୬୦": 74410,
  "▁ଚାରା": 20250,
  "▁politics,": 25346,
  "▁‘ବଞ୍ଚିବା": 56580,
  "ଗିରଫ": 27208,
  "▁ସାମ୍ପ୍ରଦାଯିକ": 45211,
  "▁ହେଉଛି:": 36204,
  "▁(ଆରଟିଆଇ)": 62382,
  "▁wipe": 50773,
  "▁Anast": 56086,
  "▁ଅଣ": 4894,
  "▁Darfur": 21726,
  "▁ଏକ୍ସପେ": 69732,
  "▁remedying": 72473,
  "▁table": 10194,
  "▁ଲାଗିଛି,": 59957,
  "▁ପ୍ରତିପାଦିତ": 46961,
  "▁ବିମାନ": 3593,
  "▁ବେର": 27324,
  "▁intact": 44016,
  "✒": 826,
  "▁innovative": 11260,
  "▁ଶିକ୍ଷକତା": 47561,
  "ଧର୍ମର": 52835,
  "ପିସି": 38007,
  "▁Safety": 14083,
  "▁bears": 22029,
  "▁security,": 10491,
  "▁prevalent": 53384,
  "▁ଡ୍ରିମ": 59685,
  "▁ତହସିଲ": 9915,
  "▁dust": 38807,
  "▁କରୁନାହିଁ": 38736,
  "▁nick": 51082,
  "▁ଡ୍ରାଇଭିଙ୍ଗ": 71232,
  "uct": 7400,
  "▁ତରବରିଆ": 42375,
  "▁lung": 53058,
  "▁ଟ୍ରେନରୁ": 32905,
  "▁ସିଦ୍ଧାର୍ଥ": 22648,
  "▁ଦ୍ୱିତୀଯ": 4241,
  "▁depending": 22160,
  "▁ପଲିଟିକ୍ସ": 6835,
  "▁କ୍ରିମ୍": 13535,
  "▁ଟଙ୍କ": 1692,
  "▁ବିଚ୍": 54226,
  "▁ପଡିଆରେ": 20104,
  "▁ସୀମାନ୍ତରେ": 40208,
  "ଣ୍ଟା": 2957,
  "▁ଘ୩": 24760,
  "▁case-by": 39605,
  "ishment": 39356,
  "ଭୋଜୀ": 54389,
  "▁ବୋଲାଉଥିବା": 69520,
  "▁ପଟ": 17449,
  "acked": 52752,
  "▁ଅଣଓଡ଼ିଆ": 53503,
  "-hour": 37330,
  "▁ଖଦି": 46495,
  "▁improve,": 58759,
  "▁Berten": 73318,
  "ଭେଲ": 33076,
  "▁ଆଶ୍ରମକୁ": 53945,
  "▁ଗୋଠ": 57802,
  "▁୧୪ରେ": 33365,
  "▁leisure": 46719,
  "▁ଭିଜନ": 64211,
  "▁ଘରର": 8420,
  "ପଯ": 54600,
  "▁ପାଖରୁ": 17747,
  "▁ଗଣମାଧ୍ଯମରେ": 12230,
  "olio": 34969,
  "▁ମିସେ": 66528,
  "ାନି": 3113,
  "▁tempting": 74295,
  "▁talking,": 65986,
  "▁ପ୍ରାଶାସନ": 65376,
  "▁ବର୍ହିଭୂତ": 73957,
  "▁ଲିପିବଦ୍ଧ": 35757,
  "▁body,": 26548,
  "▁Palestine.": 40522,
  "▁Assessment": 60023,
  "▁tenders": 55930,
  "▁secondly,": 11925,
  "▁stick": 15451,
  "▁ପାଣିଗ୍ରାହୀଙ୍କ": 43460,
  "▁‘ଜନତାଖବର": 58455,
  "▁ଶାଶ୍ୱତ": 64972,
  "▁ଅନୁଗୋଳ:": 54518,
  "▁ଚକିତ,": 6842,
  "▁ଯା'": 66880,
  "▁ଶୀର୍ଷକୁ": 70485,
  "▁ତତ୍ତ୍ୱାବଧାନରେ": 27589,
  "▁ସତ୍ଯାଗ୍ରହ": 32635,
  "▁ଖେଳକୁ": 39854,
  "▁କ˚ଗ୍ରେ": 67788,
  "▁1970s": 62962,
  "▁ବିପ": 13312,
  "-to-day": 28501,
  "▁ମାରିଛି": 37815,
  "▁response,": 27004,
  "▁ଉପରେ…": 35914,
  "▁danger": 8749,
  "▁ପରିଷଦ,": 44864,
  "▁unavoidable": 41410,
  "▁planet,": 52777,
  "▁ଜଳ-": 55441,
  "agricult": 58729,
  "▁ଚାଲିବାର": 61481,
  "▁exchange.": 64579,
  "ଭାସ୍": 65049,
  "▁autonomy": 20633,
  "▁Group,": 9718,
  "▁Bhasha": 64349,
  "ons": 6729,
  "$": 19,
  "▁universities.": 55293,
  "▁Federation,": 55333,
  "lets": 40733,
  "▁rushing": 72225,
  "▁୮ରେ": 22916,
  "ଛେ": 11612,
  "ଚକ୍ଷୁ": 72626,
  "▁probably": 7879,
  "polit": 69403,
  "▁ମୁଣ୍ଡବ": 71949,
  "ଅା": 33630,
  "▁Unfortunately,": 8001,
  "▁ଫସଲରେ": 26114,
  "▁stronger,": 48735,
  "▁Training": 39566,
  "▁drama": 53005,
  "▁ବୋଲର": 15767,
  "▁ପ୍ରୋଗ୍ରାମ୍": 70701,
  "▁Several": 23349,
  "▁p.m.": 9625,
  "▁ଟେଲି": 12537,
  "▁ପୀଠର": 55523,
  "▁rules,": 12532,
  "▁ସନେ୍ଦହ": 65271,
  "ually": 3406,
  "▁adequacy": 50404,
  "ପାଲଙ୍କ": 50947,
  "▁ଫ୍ଲାଇଂ": 58411,
  "▁ପ୍ରୋଟୋକ": 43791,
  "▁jurisprudence": 70259,
  "inger": 69572,
  "▁ଖାଇବା,": 56905,
  "▁ଭଡାରେ": 53231,
  "▁ରୁଟ୍‌": 56282,
  "▁announ": 7883,
  "ଷ୍ଠିତ": 66855,
  "iled": 25077,
  "▁healthy": 13560,
  "କୋଟ": 16084,
  "▁things.": 16535,
  "▁ଛତା": 38147,
  "▁ଛୁଇଁଛି।": 62574,
  "▁ନିର୍ଦ୍ଦେଶ": 3105,
  "▁ଦୁନିଆଁ": 55501,
  "ଚନୀଯ": 25356,
  "▁Berlusconi,": 61835,
  "▁ଏମ...": 38397,
  "▁କରିଥାନ୍ତି": 8321,
  "iring": 15389,
  "▁ରସୁଲଗଡ଼": 64111,
  "▁ମୁତ୍ଯୁ": 35643,
  "▁ଭାଇମାନେ": 38453,
  "▁ଦ୍ରୁତତମ": 64045,
  "▁stro": 55400,
  "▁debate,": 7681,
  "▁Scotland": 20869,
  "▁ଇନି": 20571,
  "▁ସୁରକ୍ଷା": 3126,
  "▁ଟଙ୍କାରୁ": 13290,
  "▁officials,": 34891,
  "ବାଦାମ": 47953,
  "osion": 35515,
  "▁ରତ୍ନଭଣ୍ଡାର": 14022,
  "ordinated": 67586,
  "▁କରିଥିଲି।": 43582,
  "▁ସସ": 26830,
  "▁tightly": 71652,
  "▁୨୨୦": 35407,
  "▁ult": 7930,
  "େଦ": 6753,
  "ଚନାରେ": 55849,
  "▁ଅମିତା": 71533,
  "⬤": 838,
  "▁(+": 47517,
  "▁rumin": 58421,
  "▁state": 2611,
  "▁ଉପସଭାପତି": 16190,
  "▁ମ୍ଯାଚ୍‌ର": 30067,
  "uccess": 31480,
  "ଅଛ": 30557,
  "▁ଚାଂଚଲ୍ଯକର": 52360,
  "▁liberties.": 53341,
  "▁ଅତ୍ଯା": 10675,
  "▁ରାସ୍ତାଟିଏ": 66597,
  "▁Bowis,": 69843,
  "▁ଆଣି": 4528,
  "▁reconstruction.": 47456,
  "▁‘ସୁନ୍ଦରୀ": 16933,
  "▁educated": 40598,
  "▁କୋଟିରୁ": 19372,
  "▁ଚୁଟି": 20611,
  "▁ଓ୍ବେବ": 69842,
  "▁ଜର୍": 9474,
  "56": 39498,
  "▁unlock": 67855,
  "▁ଅନ୍ଧ": 7135,
  "▁Committee's": 36263,
  "b)": 55597,
  "▁ଅରକ୍ଷିତ": 34773,
  "▁couples": 46451,
  "▁(ପ୍ରକାଶ": 57074,
  "▁ବୃଦ୍ଧି,": 28578,
  "▁entrepreneurship,": 59608,
  "▁foregone": 71540,
  "ଞ୍ଚିବା": 45530,
  "ump": 9560,
  "▁arch": 16555,
  "▁କଲୋନୀ-ସାକ୍ଷୀପଡ଼ା": 74891,
  "▁acceptable": 9074,
  "▁typical": 25287,
  "▁compliance.": 66358,
  "▁ଡାଏଲ୍‌": 59220,
  "▁inadequ": 10694,
  "▁୩୦ଟି": 21092,
  "କିନ୍ତୁ": 21786,
  "▁କଲେ।": 7898,
  "ାଣିଆ": 41153,
  "▁ଯଶପ୍ରୀତ": 66066,
  "▁୭୦୦": 19586,
  "▁ଯିରୁଶାଲ": 21935,
  "▁ଶୋ’ର": 53713,
  "̠": 291,
  "▁ବିମଳା": 42668,
  "atur": 12150,
  "▁ଅଞ୍ଚଳବାସୀ": 35746,
  "▁ପୋଷା": 7775,
  "▁ଖ୍ରୀଷ୍ଟାବ୍ଦରେ": 64700,
  "▁steam": 63149,
  "▁“ଭାଇ": 58744,
  "▁ପାରୁଛି": 43133,
  "▁ନାହିଂ": 61816,
  "▁ସ୍ବଳ୍ପ": 69358,
  "ises": 4224,
  "▁ded": 13123,
  "able,": 7473,
  "▁ସର୍ବତ୍ର": 50822,
  "▁monopolistic": 66099,
  "▁scapego": 47408,
  "▁ଆଦିତ୍ଯନାଥ": 20048,
  "▁ଏକାନ୍ତ": 29909,
  "ability.": 20587,
  "▁invoking": 60703,
  "▁କୂଟନୀତି": 63543,
  "▁ବାହାରିବ": 32327,
  "▁policing": 38577,
  "▁ଅସାମାଜିକ": 33947,
  "aver": 62420,
  "▁ସିଙ୍ଗା": 22206,
  "▁କୀଟନାଶକ": 22260,
  "▁୧୯୧୪": 69668,
  "ୁଆରି": 11839,
  "▁ନବରଙ୍ଗ": 22647,
  "▁tast": 54418,
  "ାର୍ଥୀଙ୍କୁ": 39067,
  "▁ପାହାଡ଼ର": 67339,
  "▁କେମିତି": 3959,
  "ଲ୍‌କୁ": 22856,
  "▁ଅଭିଷିକ୍ତ": 69272,
  "日": 876,
  "adv": 10390,
  "▁Coh": 12572,
  "▁ordered": 37204,
  "▁ଯୋଗଦେବେ।": 51034,
  "▁show,": 51624,
  "▁aroused": 53571,
  "▁ନବବିବାହିତା": 70589,
  "▁ସରସ୍ୱତୀଙ୍କ": 67062,
  "⟳": 834,
  "▁ସହୀ": 44126,
  "▁Topolán": 72609,
  "▁ଡେଟିଂ": 45208,
  "ିରେ": 5897,
  "▁ସହପାଠୀ": 53040,
  "▁defendants": 74659,
  "▁ଖୋଲିଲେ": 10660,
  "▁often.": 60742,
  "▁Suanzes-Carpegn": 72175,
  "ପୋରଣ": 40374,
  "▁‘ଏକ": 44245,
  "ସାର": 4863,
  "▁desires": 45068,
  "▁positively.": 72345,
  "▁ତ…": 52562,
  "▁ସାମୂହିକ": 44683,
  "▁ସେଇଆ": 46184,
  "▁ଗୁମର": 23272,
  "▁fax": 66239,
  "ିବିନି": 29489,
  "▁Minister": 4107,
  "▁vehicles,": 27275,
  "▁ଗ୍ରୁପ୍": 22577,
  "▁ଘୂର୍ଣ୍ଣିଝଡ": 62375,
  "▁policy?": 35607,
  "▁ହୋସ": 36759,
  "▁କମାଇବା": 24860,
  "▁Mavrom": 71410,
  "▁ମାସୁ": 66532,
  "▁ଅଧିକାରୀଙ୍କ": 8351,
  "▁କଚ୍ଚା": 69205,
  "1080": 72909,
  "▁Svens": 58926,
  "▁ଟୁର୍ଣ୍ଣ": 19150,
  "▁ଖସି": 4918,
  "▁implement.": 54461,
  "▁merits.": 67703,
  "▁ଅରୁଣ": 9520,
  "▁ହର୍": 47642,
  "▁ନାଗାର୍ଜୁନ": 61987,
  "▁ଥିବ,": 55021,
  "▁ଚାଲିବାକୁ": 28078,
  "ayot": 50328,
  "▁ଓଲଟିଲା": 22806,
  "▁corruption": 10188,
  "▁ନିଗମକୁ": 70919,
  "▁ଚାଲେ": 25161,
  "▁destination": 31901,
  "▁ଖାଆନ୍ତି": 33304,
  "▁ବିଚାରକୁ": 28615,
  "▁‘ଉତ୍କଳ": 57558,
  "▁cannab": 71385,
  "▁ଡାକ୍ତରଖାନାରେ": 8284,
  "-off": 25384,
  "▁ପ୍ରଭାବକୁ": 44157,
  "▁ନାଗେଶ୍ୱର": 64547,
  "▁ଅରିଜିତ": 50284,
  "ଂଚି": 28742,
  "▁Asia,": 26011,
  "ହେବ।": 36422,
  "▁ପାଳିର": 48731,
  "-୧୦": 20242,
  "▁ଭିତ୍": 7299,
  "▁ପ୍ରତିଶୃତି": 20453,
  "’!": 25903,
  "▁enlarging": 46561,
  "IL": 49390,
  "▁ସାମଗ୍ରିକ": 30624,
  "▁ଦକ୍ଷତାକୁ": 52615,
  "▁ଗଣ": 2806,
  "▁Euroc": 52728,
  "▁୩୫ରୁ": 59532,
  "▁commemor": 30046,
  "ଚକୁ": 68857,
  "▁promised": 13937,
  "▁ଲେଖାରୁ": 73189,
  "ɿ": 270,
  "▁ଖବରକୁ": 29535,
  "ଣ୍ଣା": 6381,
  "▁ସାଧନା": 26134,
  "ଦତ": 47224,
  "▁ଚାମ୍ପିଯନଶିପ୍‌ରେ": 70976,
  "▁Union's": 5232,
  "▁ଟାର୍ଗେଟ୍‌": 32242,
  "▁ବିକାଶଶୀଳ": 41554,
  "▁citizenship,": 36709,
  "▁ମହତ୍ତ୍ଵ": 42619,
  "▁ଦଯାନିଧି": 58418,
  "chest": 51578,
  "▁ପ୍ରତିଷେ": 33237,
  "▁scrutin": 14014,
  "▁realistic.": 41395,
  "ଟୁର": 50461,
  "▁socio": 16297,
  "▁A": 1201,
  ".୨୦୧୮": 25841,
  "▁policies": 4389,
  "▁energ": 7334,
  "▁ବାଜପେଯ": 6273,
  "-ତ": 29090,
  "▁enjoys": 32489,
  "▁fruit,": 55935,
  "▁companies,": 13300,
  "▁ଅନ୍ଯର": 25143,
  "▁notification": 29380,
  "▁perverse": 43503,
  "▁‘ଯୁ": 63901,
  "▁B7": 65325,
  "▁masses": 66335,
  "▁health-care": 71911,
  "ମାତ୍ରେ": 67866,
  "▁formation": 28176,
  "▼": 808,
  "▁field": 3964,
  "▁ଭାଉଜ": 16927,
  "▁foodstuff": 17675,
  "▁unions": 19778,
  "▁interpretations": 40029,
  "▁desertification": 48652,
  "▁ସାଧରଣ": 63189,
  "▁ସେନ୍": 65911,
  "▁ମାଯାଧର": 47317,
  "▁Leinen,": 65521,
  "▁assumption": 24680,
  "▁କ୍ଯାରିଅ": 33560,
  "▁right)": 62772,
  "▁echoing": 74788,
  "▁viable,": 64628,
  "▁discrepancies": 36368,
  "ଲାଇନ": 18038,
  "▁true.": 22553,
  "▁ଶୁଭେଚ୍ଛା": 11526,
  "▁ଶାଢ଼ୀ": 39299,
  "▁Souch": 51092,
  "ussia": 26524,
  "▁ଜୋହରଙ୍କ": 42867,
  "▁fantastic": 41052,
  "▁la": 2203,
  "▁ଧ୍ଯାନରେ": 28930,
  "▁ଜିଲ୍ଲାପ୍ରଶାସନ": 28406,
  "▁ସଂଗ୍ରହାଳଯରେ": 62981,
  "▁dared": 55191,
  "▁livelihood": 25993,
  "▁Agency,": 28047,
  "ẇ": 744,
  "▁ସଦାସ": 47151,
  "▁ଋଷିକ": 74575,
  "▁ଜନତା": 5118,
  "▁light": 5858,
  "▁ପୂର୍ବାନୁମାନ": 14049,
  "▁ଏଟିଏ": 7302,
  "ାଗଲେ": 20742,
  "ଲିସ୍‌": 50169,
  "▁ନୁଆଁଇ": 51381,
  "es.": 1866,
  "▁ଗ୍ରେ": 13165,
  "▁ସାର୍ବଜନିକ": 21835,
  "essed": 40421,
  "▁ବୁଡ଼ିଗଲେ": 56160,
  "▁normal": 11046,
  "strö": 17135,
  "▁ଟିମ୍‌ରେ": 25094,
  "▁line,": 26671,
  "▁ଅହ": 8628,
  "▁ଚ୍ଯାନେଲର": 54737,
  "▁CIA": 31577,
  "▁ଧକ୍କା:": 33882,
  "▁Sarl": 74025,
  "▁complement": 12130,
  "▁୬ଶହ": 66559,
  "▁ପ...": 27813,
  "▁ଲଘୁଚାପ": 7353,
  "▁ବକ୍ତବ୍ଯକୁ": 67688,
  "▁ଦେଖନ୍ତୁ....": 26838,
  "▁୫୦ଜଣ": 74600,
  "▁ଠେଲ": 60436,
  "▁ନିର୍ଯାତନା,": 67016,
  "▁ରାସ୍ତାଟି": 66596,
  "▁wonder,": 42644,
  "▁ମସଜିଦ": 50749,
  "▁Delors,": 73860,
  "▁Sweden.": 33927,
  "▁ଛଳରେ": 66238,
  "▁ମନୋବୃତ୍ତି": 49329,
  "-୩,": 55093,
  "▁coal": 13467,
  "▁ଆରଏସପି": 68555,
  "▁ତାଙ୍କୁ": 2579,
  "ପୁର୍ଣ୍ଣ": 12142,
  "\b": 15,
  "▁undergoing": 33801,
  "▁;…": 51493,
  "▁ପଦ୍ମଲୋଚନ": 61252,
  "Д": 344,
  "▁epis": 42368,
  "-Car": 66378,
  "ar.": 34473,
  "ବ୍ଯାସ": 47909,
  "▁C-DAC": 26035,
  "▁ଜଗତେ": 38214,
  "ïve": 51557,
  "▁Articleମ": 70388,
  "▁ସ୍ଥାଣୁ:": 37765,
  "▁recy": 16049,
  "▁ଟ୍ରେନ୍‌ରେ": 20892,
  "▁question,": 9322,
  "▁ପାଳନକୁ": 70810,
  "▁ଶ୍ରମ": 15759,
  "▁argument.": 47980,
  "▁deadline": 14217,
  "▁ଶ୍ରମିକ,": 62558,
  "▁visa": 10210,
  "▁self-d": 21581,
  "▁focussed": 57281,
  "▁ବହଲଙ୍କ": 57440,
  "▁ଖାଇଛନ୍ତି": 68282,
  "▁bureaucracy,": 36161,
  "▁ବମ୍ବେ": 16770,
  "▁hesitate": 33471,
  "▁claim": 6865,
  "▁ସମାଜବାଦୀ": 23405,
  "emical": 9911,
  "▁ଡେବିଟ୍‌": 66131,
  "▁cessation": 51224,
  "▁ପ୍ରିଯଙ୍କା": 10465,
  "▁କହିଲା,": 8880,
  "▁multitude": 54309,
  "ସନ୍,": 62559,
  "▁କରିଅଛ।": 62069,
  "ତିବ": 34124,
  "▁ରାଜ୍ଯସ୍ତରରେ": 72717,
  "▁obtaining": 19376,
  "▁better,": 22021,
  "▁cruelty": 55344,
  "▁ବସ୍ତି,": 50431,
  "▁hundred": 9406,
  "▁ମାଝୀଙ୍କୁ": 65160,
  "ନ୍ଥରା": 62866,
  "▁କେତୋଟି": 14443,
  "ଦିଏ": 27971,
  "▁clearer,": 66699,
  "▁ସାର୍ବଭୌ": 50860,
  "▁ବାଟୋଇ": 62871,
  "▁ହଟାଇବା": 24752,
  "▁maternal": 56073,
  "▁ପାରନ୍ତି": 12092,
  "ପତାକା": 73090,
  "▁enhancement": 46816,
  "▁ଜଳସେଚନର": 59577,
  "▁yesterday'": 57874,
  "▁Neil": 70487,
  "▁Chak": 40920,
  "▁ମକର": 11224,
  "▁patents.": 60279,
  "-ମାର୍ଚ୍ଚ": 58676,
  "▁reciproc": 17853,
  "-Math": 59787,
  "▁ନିଜସ୍ଵ": 49575,
  "▁central": 6370,
  "▁ପତ୍ରା": 69782,
  "alf": 2669,
  "▁trialogue": 26244,
  "έ": 312,
  "▁ଦର୍ପ": 38480,
  "▁unlim": 37225,
  "▁voy": 72223,
  "▁ସର୍ବକାଳୀନ": 58521,
  "▁invoked": 49731,
  "ଟପ": 69555,
  "▁କର୍ତ୍ତୁପକ୍ଷ": 41508,
  "▁proxim": 37555,
  "▁attacks.": 37656,
  "▁ପ୍ରଦୂଷଣରୁ": 46447,
  "ନ୍ନି": 30148,
  "bate": 15387,
  "ସିଆର": 10758,
  "س": 406,
  "▁\"ବ": 58753,
  "▁ସେନସେକ୍ସ": 72970,
  "parable": 39866,
  "▁agriculture,": 14896,
  "▁ଅଫର୍": 31120,
  "▁obvious": 5455,
  "▁ନିଯମିତ": 8212,
  "▁Sarthak": 28601,
  "▁most.": 42724,
  "point": 15247,
  "▁Community,": 16359,
  "୍ଵା": 14001,
  "▁pron": 24788,
  "▁dragging": 47331,
  "▁୩୭ଟି": 65444,
  "▁ଡିରେ": 37441,
  "endix": 45291,
  "▁ଫାଯ": 54622,
  "▁ସଂଗୀନ": 35427,
  "▁କ୍ରିଷ୍ଟି": 61738,
  "▁ସପ୍": 58468,
  "▁ହେପାଜ": 45269,
  "▁Euro-Mediterranean": 16419,
  "▁ଚତୁର୍ଦ୍ଦି": 44994,
  "▁କମୁ୍ଯନିଷ୍ଟ": 73464,
  "▁କାଦୁଆ": 71728,
  "▁ଶିବିରର": 51805,
  "▁ନିଅାଁ": 27985,
  "ଜେନ୍‌": 51129,
  "▁ସିଷ୍ଟମ୍": 48634,
  "ଶିଷ୍ଯ": 72265,
  "ସନୀଯ": 21989,
  "▁experi": 4167,
  "ष": 463,
  "▁substance.": 30464,
  "▁ଡାଉନଲୋଡ୍(": 34284,
  "▁ଟ୍ରେନ୍‌,": 46932,
  "▁ପଧାନ": 47774,
  "▁ଅମୀ": 48863,
  "▁୨୦ବର୍ଷ": 42513,
  "▁ମହାମାରୀ": 42716,
  "usiness": 44702,
  "▁detriment": 18529,
  "▁‘ଜନତାଖବର’ର": 73044,
  "eadingଦେଶ-": 40238,
  "▁କଦଳୀ": 13641,
  "▁sector's": 50514,
  "▁ଅସୁବି": 12264,
  "▁cultiv": 18599,
  "▁ହସ୍‌": 23052,
  "▁ବିଧିର": 58754,
  "▁କେଜ୍ରିୱାଲ": 43253,
  "ସାରା": 16878,
  "▁hot": 18957,
  "ସି.": 64176,
  "ଦିନ": 2317,
  "▁cities.": 34585,
  "▁ଚାଲ": 4917,
  "▁ପାଦୁକୋ": 13010,
  "▁ଆକଳନ": 9874,
  "▁ହେଯାର": 34639,
  "▁ସୌନ୍ଦର୍ଯ୍ଯକୁ": 43148,
  "▁spring": 17509,
  "▁Tajikistan": 46122,
  "▁multi-ethnic": 51039,
  "▁synonymous": 52502,
  "▁ସିମୁ": 39996,
  "▁Thessalonik": 53770,
  "ଚର୍": 45028,
  "▁(୪୦": 48986,
  "▁off.": 27436,
  "▁ଅଧ": 1485,
  "▁୯-": 73201,
  "▁ହୃଦେ": 59515,
  "▁(୧୯୯୮)": 42773,
  "-k": 64147,
  "▁ପଞ୍ଜୀକରଣ": 16449,
  "ତ୍ର": 1927,
  "▁Has": 23739,
  "ଶର୍ମା": 40326,
  "▁ଛତିଶଗଡ଼ର": 23755,
  "▁anomal": 51218,
  "▁precurs": 56869,
  "▁ଅଫୁଟା": 51773,
  "▁sleep": 38557,
  "▁carcass": 68123,
  "▁ପ୍ରଭାସ": 20078,
  "▁ଭି.କେ": 48534,
  "▁Montenegro,": 57471,
  "▁ସୂର୍ଯ୍ଯଦେବଙ୍କୁ": 58780,
  "▁ସିଦ୍ଧ": 10315,
  "▁Kurd": 14537,
  "▁children’s": 53688,
  "▁ରଣହୁ": 53506,
  "▁ଏଥ": 36244,
  "▁ସନ୍ତାନର": 27122,
  "▁extr": 40993,
  "▁ଠିକଣାରେ": 44404,
  "▁କୂଳକୁ": 44896,
  "▁ବିକାଶର": 17364,
  "▁ମିଲିଯନ୍": 58440,
  "ଗଲେ।": 24201,
  "ź": 249,
  "▁Mr": 1291,
  "ଗ୍ନ": 10756,
  "▁happen?": 71968,
  "▁Taiwan": 22734,
  "▁GDP.": 31868,
  "▁ମିଳୁଥିଲା।": 62286,
  "▁contag": 73592,
  "▁ସମଯ।": 50206,
  "▁ଇସଲାମ": 28881,
  "▁ମନୋଭାବ": 17827,
  "▁promote": 4832,
  "▁ଘଣ୍ଟା…": 20893,
  "〖": 841,
  "▁୬.୫": 58023,
  "▁notified": 35846,
  ".ପ୍ର.ସେ": 40305,
  "ଣ୍ଟର": 4385,
  "ସ୍ଥିତିରେ": 32172,
  "▁Chinese,": 71634,
  "▁re-establishing": 66737,
  "▁ପକ୍ଷକୁ": 66895,
  "▁def": 2393,
  "land": 2936,
  "ré": 36113,
  "▁ଚେତ": 7232,
  "▁ହୋଇଗଲା।": 26344,
  "▁draftsman": 18630,
  "▁ଲେଖାଏ": 10008,
  "▁start": 3320,
  "▁fishery": 23435,
  "▁months.": 12405,
  "▁ଅଭଯ": 28991,
  "▁୧୧ଟି": 14035,
  "୩୪": 15638,
  "ଟସ": 56012,
  "▁ପଥେ": 49327,
  "ସ୍ୱାର୍ଥ": 23751,
  "▁ପୃଷ୍ଠାଗୁଡ଼ିକ": 27675,
  "▁reflection,": 52169,
  "▁ଟେକ୍ସଟାଇ": 68802,
  "▁array": 62211,
  "itz": 13857,
  "▁twin": 34249,
  "▁rise": 7575,
  "▁electronic": 10735,
  "▁cool": 34090,
  "▁ଏବେର": 61682,
  "▁Ukrainians": 61748,
  "ensitive": 46396,
  "▁ଗ୍ରୀନ୍": 40030,
  "▁ଏପ୍ରିଲ୍": 24420,
  "କାହିଁକି": 58007,
  "▁ଛିଡି": 69360,
  "government": 51320,
  "▁ହେଲିପ": 64179,
  "▁attaching": 63434,
  "▁ଶିଳ୍ପାନୁଷ୍ଠାନ": 51303,
  "▁capacity": 7170,
  "▁ଭାଇକୁ": 39214,
  "▁ପ୍ରଶ୍ନଗୁଡିକର": 43023,
  "▁???": 53268,
  "▁safety,": 13753,
  "▁ଦୂରଦୂରାନ୍ତ": 65862,
  "▁ପାଇଲ": 20928,
  "▁budgeting": 49888,
  "▁tour": 7218,
  "▁apprent": 46879,
  "▁Febru": 8093,
  "▁wrong,": 30966,
  "ଟ୍ରା": 19213,
  "▁instances": 23700,
  "▁ଓ୍ବାଶିଂଟନ,": 73921,
  "▁ଇସ୍ତାହାର": 24215,
  "▁ପ୍ରତ୍ଯକ୍ଷଦର୍ଶ": 48635,
  "▁suspicion": 27839,
  "▁ଲେଖକ/କବି": 55174,
  "▁insignificant": 50372,
  "▁advanced": 16715,
  "▁ଲୋହିତ": 49306,
  "▁tonnage": 70955,
  "▁ପ୍ଲାନ": 14101,
  "▁contrary.": 42452,
  "ί": 314,
  "ourt": 4326,
  "ାତ୍ରାର": 14936,
  "▁Buiten": 33575,
  "▁ambiguous": 39486,
  "▁notable": 40340,
  "▁ସଂଖ୍ଯା,": 43311,
  "ା୯:": 64081,
  "▁ଖତ": 25273,
  "▁ଝାର": 6070,
  "▁ବ୍ଲକରେ": 13020,
  "▁re-": 10701,
  "ର୍ଗତମ୍)": 60043,
  "<s>": 2,
  "▁ପରବ-୨୦୧୮ର": 58182,
  "▁ତ୍ରାଣ": 67982,
  "▁ଆତ୍ମିକ": 58916,
  "▁ତାଳଚେର,": 37746,
  "▁ନଓ୍ଵାଜ": 61895,
  "▁programme": 3036,
  "▁tab": 32816,
  "▁ବୈମାତୃକ": 68481,
  "▁ନଥିପତ୍ର": 68442,
  "▁motive": 55469,
  "▁ଦୁର୍ଘଟଣାରେ": 7857,
  "▁relinqu": 48454,
  "▁କଲ୍ଯାଣୀ": 56717,
  "▁ବଲାଙ୍ଗିର": 9315,
  "▁push": 12160,
  "▁ଚୁଡି": 60485,
  "ୁଳ": 41063,
  "▁ens": 2260,
  "ନେଦର": 41173,
  "ଯନ୍ତ୍ର": 11289,
  "▁ଧୋନୀଙ୍କ": 34062,
  "▁ପାର୍ବ": 36688,
  "ଜରୁ": 40148,
  "▁century,": 22943,
  "▁ମାଟିରୁ": 61749,
  "▁biog": 43536,
  "▁intellig": 12284,
  "▁words:": 54682,
  "▁କ୍ରୀତଦାସ": 74403,
  "ୁଛି": 2450,
  "▁ଇସାରା": 36858,
  "ron": 4110,
  "__": 13781,
  "ଭ୍ଯୁ": 19620,
  "▁MEPs'": 64032,
  ":43": 37056,
  "▁seeks": 12512,
  "▁ଚଲେଇ": 65590,
  "▁ଲୋକପ୍ରିଯ": 7432,
  "କ୍ସନରେ": 66575,
  "▁ପ୍ରକାରେ": 25420,
  "▁ଚାଉଳ,": 22306,
  "▁ସୌନ୍ଦର୍ଯ୍ଯରେ": 70882,
  "▁communiqu": 61968,
  "▁କର୍ଲ": 74621,
  "ys": 7712,
  "▁ପଡିଥିଲେ।": 60964,
  "▁ଦୁର୍ନିତ": 65964,
  "▁ତତ୍କାଳ": 34340,
  "ାନିଂ": 32328,
  "ଓ)": 41959,
  "▁ସେନାପତି,": 48247,
  "▁arrested.": 73326,
  "▁ସାନପୁଅ": 50555,
  "▁୬୫": 12915,
  "▁do": 1397,
  "▁Adoption": 62099,
  "g.": 36178,
  "▁(T": 24433,
  "▁ruling,": 68949,
  "▁ଘା’": 34435,
  "▁unrest": 24307,
  "å": 180,
  "▁States,": 3756,
  "▁Cros": 70128,
  "lobal": 48964,
  "▁ଶଗରିଆ": 53234,
  "ବିଳ": 49725,
  "ାନ": 1083,
  "▁culture": 8497,
  "▁Russia’s": 56331,
  "▁Border": 47930,
  "▁ୱେବ୍‌ସାଇଟ୍‌": 25067,
  "▁transpose": 32978,
  "▁ପାନପୋଷ": 73733,
  "▁fru": 32863,
  "ିଲ୍ଲ": 9900,
  "ଚ୍ଛାସେବ": 62056,
  "ille,": 62144,
  "ଲ୍ଯରେ": 42123,
  "justment": 20553,
  "▁ଜ୍ଯୋତିଷଶାସ୍ତ୍...": 36721,
  "▁ଅଫିସର": 7264,
  "▁ଦୁର୍ଗାଙ୍କ": 49353,
  "▁ଦେଶପ୍ରେ": 61938,
  "▁ଭୋଲ୍‌କର‌୍‌ଙ୍କ": 68468,
  "▁(୧୯୮୫)": 73383,
  "▁consist": 6130,
  "▁incurred": 27653,
  "▁ପରାଜ": 8675,
  "▁bottleneck": 41122,
  "ଧନ୍ଯ": 39500,
  "iers": 25104,
  "▁1989": 34514,
  "▁ଡ୍ରେନେ": 43544,
  "▁(A": 5039,
  "▁ମହଜୁ": 26412,
  "▁ପ୍ରମୋଶନରେ": 61775,
  "▁କେତକେ": 72801,
  "▁Cult": 12200,
  "▁ପାଇକର": 69235,
  "▁energet": 38155,
  "▁ୱେବସାଇ": 8123,
  "▁knows": 11604,
  "г": 358,
  "▁ଖାଉ": 8891,
  "κ": 324,
  "▁gets": 20776,
  "▁ବଢିଯାଏ": 39373,
  "▁asymmet": 40722,
  "-modified": 68990,
  "ିବ୍ରତ": 74440,
  "ହ୍ମା": 39853,
  "ived.": 65602,
  "▁ଶାରଦା": 51318,
  "▁ଜ୍ୱଳନ୍ତ...": 64370,
  "▁‘ଚାଷୀ’": 43175,
  "▁Marsh": 53818,
  "▁Sambad": 4205,
  "▁ମନୋମାଳିନ୍ଯ": 60994,
  "▁Hughes": 49227,
  "▁turbul": 54180,
  "▁ପ୍ରଭାରୀ": 20498,
  "ince": 2539,
  "▁ଗିଫ୍ଟ": 46550,
  "▁ଜିଆର": 34477,
  "▁recession,": 47200,
  "▁ବଢାଉଛି": 56696,
  "▁ସଂକ୍ଷିପ୍ତ": 20957,
  "▁ଶ୍ରେଣୀ,": 34886,
  "▁202": 62758,
  "▁ବୋଲା": 48338,
  "▁space.": 44067,
  "ani,": 46134,
  "▁area,": 8552,
  "▁ଶାସ୍ତ": 21366,
  "▁allocating": 30805,
  "▁Assembly.": 33091,
  "▁munic": 24066,
  "ubble": 71508,
  "▁ପରୀକ୍ଷାର": 31293,
  "▁ଆଭ୍ଯ": 18060,
  "▁regulatory": 9455,
  "▁ଦାସବର୍ମାଙ୍କ": 64359,
  "▁ହୋଇନାହିଁ": 14594,
  "bted": 38430,
  "▁informing": 24813,
  "ମିନିଟ୍‌": 45000,
  "▁୧୪୧": 53493,
  "▁transition.": 56154,
  "▁ଅନୀଲ": 22614,
  "▁ଆନେ୍ଦାଳ": 47197,
  "▁କିଭଳି": 6760,
  "onder": 58465,
  "▁କଦର୍ଯ୍ଯ": 52039,
  "▁ଭୁଶୁଡ଼ିଲା": 67691,
  "▁interconn": 22959,
  "▁୧୯୯୭ରେ": 70098,
  "ପର୍": 21784,
  "▁ବିଜନେସ୍": 43168,
  "▁contexts": 74607,
  "▁ଧର୍ମଘ": 70032,
  "▁ମହାମହିମ": 30002,
  "▁ୱିକେଟ୍‌ରେ": 32958,
  "▁ଡାଇବେଟିସ୍‌": 41597,
  "▁ମୂଲ୍ଯବୋଧର": 48153,
  "͡": 295,
  "ଧୁରୀ": 61133,
  "ୁଆଁ": 14435,
  "▁ଯୁବରାଜ": 17636,
  "▁sittings": 34844,
  "▁କରାଯାଇଥିବାରୁ": 43820,
  "ging": 5383,
  "▁ମେଡାଲ": 44939,
  "କଷ୍ଟ": 53985,
  "▁installation": 43455,
  "ିଲ୍ଲା": 12289,
  "▁ଶୁକ୍ଳା": 62918,
  "▁ପଛ": 3586,
  "▁ଉଡ": 12593,
  "ଶାହ": 40996,
  "▁succ": 49293,
  "▁ଯୋଗଯୋଗ": 71504,
  "▁num": 2488,
  "▁ଡ୍ଯାମ୍": 67037,
  "▁ଜଣେଇ": 41534,
  "▁ମାଣବସା": 52195,
  "▁ଉତ୍ତରାଞ୍ଚଳ": 60807,
  "▁Rasm": 42704,
  "2": 33,
  "▁ଦାରିଙ୍ଗିବା": 70582,
  "▁ଗୀତର": 25671,
  "▁ବିଚାର": 3952,
  "▁ଆଯତନ": 50049,
  "aic": 57294,
  "cest": 69191,
  "▁ସ୍ଵାସ୍ଥ୍ଯରେ": 73335,
  "ହାନୀ": 22884,
  "1.9": 43985,
  "▁ଶିକ୍ଷାବର୍ଷ": 41223,
  "roc": 12056,
  "▁ପ୍ରଦର୍ଶନର": 69716,
  "▁stamp": 31974,
  "▁couple": 14873,
  "▁stringent": 17706,
  "ଦ୍ରି": 19819,
  "▁ପାଣ୍ଠିର": 62471,
  "▁Pinochet": 59637,
  "▁(COM(2002)": 68415,
  "😎": 991,
  "▁mount": 33842,
  "▁impat": 65046,
  "▁ମିଳିମି": 38741,
  "▁hide": 21501,
  "▁ଖୁଣ୍ଟିଆ,": 57265,
  "ଯାଙ୍ଗ": 46893,
  "▁ମେରାଇ": 52272,
  "▁Nations,": 21202,
  "▁ପୁନର୍ଗ": 33082,
  "▁ସୁଫଳ": 16862,
  "▁ଗହ": 8744,
  "sions": 15774,
  "▁ମାଲାମାଲ୍": 64141,
  "▁ମୁହୂର୍ତ୍ତର": 30855,
  "▁ଏକପାଖିଆ": 67214,
  "▁ଜର୍ମାନୀ,": 69793,
  "▁ମେଲ": 24698,
  "▁ତିନିଦିନ": 28718,
  "▁ଆରମ୍ଭ:": 43008,
  "▁artificially": 43458,
  "boundary": 74881,
  "▁ମନେରଖ": 36304,
  "ogn": 3526,
  "▁ବି.ଦ୍ର:": 32713,
  "▁ଧକ୍କା,": 19079,
  "▁(ଅମୃତ": 43646,
  "▁ୱାର୍ଲ୍ଡ": 43759,
  "▁brief": 7075,
  "୫": 645,
  "▁talents": 74332,
  "▁contracts": 14459,
  "▁ଭାଗକୁ": 40926,
  "▁ନିକଟ": 4438,
  "▁ବହୁମୁଖୀ": 40180,
  "▁ଆର୍ଶୀ": 43578,
  "ଭାବ,": 74085,
  "▁finger": 20906,
  "▁‘ଗୁପ୍ତ": 41224,
  "▁ଖାଇବାରେ": 49468,
  "wh": 4497,
  "▁Harbour": 27954,
  "▁repay": 35417,
  "▁guests": 74836,
  "▁abducted": 55158,
  "▁ଦେଖିପାରିବ": 72250,
  "▁ଦୂତ": 25698,
  "▁ସଲମାନ୍": 36342,
  "▁୧୨୨କେଜି": 55977,
  "▁cree": 65890,
  "▁Arrest": 36967,
  "▁ଏନଟିସିଏ": 65684,
  "▁ଉଠୁଛି।": 68956,
  "▁କର୍ମଶାଳାର": 65661,
  "▁ଟାଟାଙ୍କ": 37132,
  "▁ଗଲେଣି": 61735,
  "c": 82,
  "▁for": 1111,
  "▁\"The": 51287,
  "▁ଗତେ": 28339,
  "▁କଷ୍ଟରେ": 30964,
  "▁burst": 60575,
  "▁ନିଶ୍ଚିତ।": 62878,
  "▁ଢ଼େର": 68367,
  "▁ଭାଷାକୋଷ": 55047,
  "▁‘ବାହୁବଲୀ": 45144,
  "▁ନୀତିକୁ": 30236,
  "▁କୋର୍ଡ": 65433,
  "▁ରୂପାନ୍ତରିତ": 41953,
  "▁ଉଇକିମିଡ଼ିଆ": 15196,
  "▁୯୨ଟି": 72512,
  "▁ବାତିଲ୍": 41481,
  "▁critic": 5670,
  "▁Fuk": 46499,
  "▁Wall": 15026,
  "▁Fortunate": 23523,
  "▁କାରବାରକୁ": 32448,
  "▁ଦ୍ୱନ୍ଦରେ": 64484,
  "▁ସୂଚନାରୁ": 40293,
  "▁ବିପଦମୁକ୍ତ": 54316,
  "/96": 15915,
  "▁depriving": 44305,
  "-call": 24514,
  "▁by-catch": 53430,
  "-the-board": 56395,
  "▁missions.": 55723,
  "▁roots,": 70545,
  "▁misman": 36173,
  "▁Mugabe": 25560,
  "▁ହୁଳହୁଳି": 70654,
  "▁ମଡ଼େ": 59908,
  "ନ୍ଧ୍ରପ୍ରଦେଶ)": 30448,
  "▁ସରକାରୀ,": 70796,
  "ଶୋ": 16471,
  "▁counterfeit": 22017,
  "▁Counter": 65339,
  "▁outstanding.": 72261,
  "▁କୁନି": 9176,
  "▁ନାଇଜେରିଆ": 52873,
  "▁ପେସା": 56901,
  "ଟାଲାରେ": 72411,
  "▁proposes,": 47936,
  "is,": 11008,
  "▁ଉପକରଣ": 11394,
  "▁counterfeiting.": 65216,
  "▁issues,": 9723,
  "କ୍ଷେପରେ": 42580,
  "▁ଖମାର": 59927,
  "▁timely": 17055,
  "▁ଦେଖାଯାଉଥିବା": 22131,
  "ision": 2049,
  "ାବଧାନ": 30563,
  "▁ଯବାନଙ୍କ": 15227,
  "▁ଚିନ୍ତାଗ୍ରସ୍ତ": 56536,
  "seless": 60441,
  "▁Milan": 73365,
  "ଏମପି": 66028,
  "ଛୁଳା": 68268,
  "▁୯୦": 9868,
  "-ସ": 13877,
  "here": 22141,
  "▁ଗୋପନୀଯତା": 22370,
  "▁କାହାଣୀ,": 40842,
  ":51": 38233,
  "▁ସୂଚାଇ": 35071,
  "▁ହରିଯାଣ": 17763,
  "▁disciplinary": 37067,
  "▁twenty-five": 45727,
  "ମାତା": 34177,
  "▁ପୋର୍ଟ": 26992,
  "▁gal": 66223,
  "▁Increased": 51196,
  "▁O'": 72696,
  "▁informative": 55658,
  "▁tooth": 49105,
  "▁ଅଟଳ": 9260,
  "▁abusive": 55963,
  "▁ପର୍ଦ୍ଦା": 22149,
  "ishing": 12491,
  "▁scrapping": 41320,
  "ନିଯୁକ୍ତ": 52413,
  "ର୍ଜା": 62140,
  "ନାକୁ": 5288,
  "ଦେଲ": 66917,
  "▁ସର୍ଜନା": 60952,
  "▁ଅହସିଯ": 73771,
  "▁୭୬୬": 61777,
  "▁ଟ୍ରେନ": 9877,
  "▁ମହାସ୍ନାନ": 63329,
  "▁ବୋଲଡ": 71614,
  "▁clear,": 11851,
  "▁ଫେରିଲା": 14678,
  "▁ସୁକି": 28375,
  "▁non-trans": 64810,
  "▁cities,": 34078,
  "▁Thess": 27235,
  "▁discussing": 7571,
  "ୋଧା": 47534,
  "▁ଜେଲ୍‌": 11961,
  "▁press.": 34102,
  "▁ଅଜାଣତରେ": 33474,
  "▁technologies": 11397,
  "▁କରି,": 19490,
  "▁ଜିମ୍ବାୱେ": 62680,
  "▁doctors": 25638,
  "aware": 33133,
  "▁କାଟିଲା": 67990,
  "▁ବ୍ଯାଙ୍କି": 20257,
  "▁abus": 21765,
  "7)": 28819,
  "▁ନେଇଗଲେ।": 66540,
  "ସ୍ପର": 8827,
  "▁କୁହାଯାଉଛି।": 13230,
  "▁June.": 22845,
  "▁୮ହଜାର": 68586,
  "▁tree": 46981,
  "▁forthcom": 51815,
  "▁ସାମ୍ବାଦିକତା": 39933,
  "▁onwards,": 54003,
  "▁‘ଡାଏ": 34596,
  "-level": 28195,
  "▁ଆମାଜନ୍‌": 72135,
  "▁ଗାଡ଼ିମଟର": 51305,
  "▁ମହାକୁ": 20303,
  "▁ସବ୍ୱେ": 74161,
  "▁ତ୍ରିକୋଣୀଯ": 62980,
  "ଠାକୁ": 8975,
  "▁ଝିଅମାନେ": 23419,
  "▁ସଫାସ": 43763,
  "▁ଭାବାବେଗକୁ": 68438,
  "▁ଗଡ଼": 11393,
  "▁ଏଏସ୍‌ଆଇ": 29374,
  "▁among": 4047,
  "▁chain,": 39884,
  "▁ହେଇଗଲେ": 73735,
  "▁୧-୦": 61905,
  "ସିଟିର": 39283,
  "▁‘m": 55638,
  "▁produced": 7726,
  "▁cur": 2360,
  "▁ଜଳମଗ୍ନ": 27911,
  "▁Ro": 17938,
  "▁ସବିଶେଷ": 19963,
  "-year": 11311,
  "▁କୃଷିଋଣ": 21303,
  "▁Und": 55632,
  "▁dream.": 66092,
  "▁ଯେଉଁମାନେ": 7962,
  "▁ଘନ": 11858,
  "▁କାର୍ଯ଼": 24443,
  "▁ଫୋରମ୍‌ର": 67073,
  "▁Naval": 66236,
  "▁Network": 24563,
  "▁ସହକାରୀ": 18863,
  "▁ଜାଲରେ": 17412,
  "▁ସୋନାଲ": 57585,
  "▁gangs": 54178,
  "▁doctr": 63761,
  "▁record.": 48901,
  "▁ବରାଇ": 70795,
  "esty": 24570,
  "▁‘ସୁପର": 69421,
  "▁(୬)": 69606,
  "▁ଜଳି": 8543,
  "ନି": 1449,
  "▁କୁନ୍ଦୁଲିର...": 43876,
  "-tw": 60763,
  "▁ଅବପାତ": 11837,
  "▁ସଂକ୍ରାମକ": 48699,
  "▁ନବବିବାହିତ": 65221,
  "▁disability,": 47527,
  "▁ରାମକ୍ରି": 70809,
  "▁opt-in": 73742,
  "▁strategies": 13044,
  "▁fail.": 45681,
  "▁ବିଭା": 17470,
  "▁life-long": 59268,
  "▁overthrow": 64688,
  "▁ଜିଲ୍ଲାବାସୀଙ୍କୁ": 74122,
  "▁ରଣବୀର": 7534,
  "bul": 41776,
  "▁ବେଶି": 12694,
  "ଜ୍ଯୋତି": 31085,
  "▁enough.": 12456,
  "▁ହରିପୁର": 62264,
  "▁ଗୁମା": 66865,
  "ú": 201,
  "▁erroneous": 59880,
  "▁ମାର୍କେଟ୍": 69753,
  "▁priorities,": 20201,
  "▁dysf": 74878,
  "▁dign": 9544,
  "▁ସ୍ମ": 2695,
  "▁dissidents": 52694,
  "▁ଧାବିକା": 55211,
  "▁ବିସ୍ଫୋରଣ": 7134,
  "▁Comp": 19454,
  "▁stake,": 37975,
  "▁ଅସମ": 29464,
  "▁ଅନୁର": 6622,
  "ଭାର": 9797,
  "▁ଖାଇବାକୁ": 8915,
  "▁ନି": 1171,
  "▁ଶିଶିର": 27785,
  "▁inaug": 43478,
  "▁ବିଶେଷତ୍ଵ": 70793,
  "ତ୍ସାହିତ": 66447,
  "▁ପରିହାର": 72711,
  "▁fit.": 64635,
  "ୋର୍": 1693,
  "▁generalised": 40366,
  "▁ଚେଯାର": 18128,
  "▁ଭଲପାଇବା": 27070,
  "▁ଯୀଶୁଖ୍ରୀଷ୍ଟ": 24892,
  "▁ଭାରତ’": 47658,
  "▁total": 6218,
  "ceptions": 72280,
  "▁helps": 17363,
  "ବାଦୀ": 3537,
  "enefit": 34936,
  "▁crit": 3076,
  "ub": 1835,
  "▁ରୋମା": 12362,
  "▁ଉଦ୍ଭାବ": 21248,
  "▁ଗାଲା": 35605,
  "▁ପ୍ରଜାତିର": 22202,
  "▁assessments": 18934,
  "-୧୦:": 64907,
  "▁'we": 44255,
  "▁କରିଥାଏ": 6338,
  "▁ଶିଳାନ୍ଯାସ": 17973,
  "▁ଏହାଛଡ଼ା": 18666,
  "▁Eastern": 9221,
  "▁ଘୁଷୁରୀ": 40784,
  "▁ଯତ୍ନରେ": 67757,
  "ange": 2388,
  "ୱାଇସି": 74795,
  "▁କ୍ଷତିଗ୍ରସ୍ତଙ୍କ": 61279,
  "୩୯,": 35177,
  "▁କେବେଠାରୁ": 48349,
  "▁ଛତୁ": 23967,
  "▁Each": 20464,
  "▁ମେସି": 9979,
  "▁factual": 37714,
  "▁ପାଇପ୍‌": 35291,
  "▁ମାଗିବେ": 37035,
  "ହା,": 51413,
  "▁ଦେବେ,": 53511,
  "ଂରେ": 65876,
  "▁ଶାଖାକୁ": 72446,
  "ିପ୍ତ": 73091,
  "▁ମତଦାନର": 32002,
  "ବୋହାଇ": 40550,
  "▁41": 25819,
  "▁incorporate": 16810,
  "▁ପ୍ରତ୍ନତତ୍ତ୍ୱ": 14540,
  "▁inexpl": 66128,
  "▁ସିକ୍ୱେ": 67543,
  "▁compreh": 6927,
  "▁rights.": 5631,
  "▁ଥଇଥାନ": 18731,
  "▁ଗାଳ୍ପ": 30347,
  "▁ତିଆର": 47536,
  "ଲ୍ଡର": 74515,
  "▁lock": 34588,
  "▁ଯାଚ": 50034,
  "ଳ୍ପନାର": 65655,
  "▁rights'": 69291,
  "▁ଭିନ୍ନ": 4812,
  "▁ମିଶ୍ରଣକୁ": 38170,
  "▁Croatia.": 45349,
  "▁whilst,": 74234,
  "": 913,
  "ରନ୍‌": 37498,
  "▁ଦୁର୍ବୃତ୍ତଙ୍କ": 48912,
  "▁ସୂର୍ଯ୍ଯ": 5360,
  "▁ଏଜେଣ୍ଟ": 33181,
  "▁କୁମ୍ଭ,": 40296,
  "▁ପାଲି": 57552,
  "ଭରେଜ": 66370,
  "▁ଥରର": 71938,
  "▁ମହିଳାଜଣକ": 69998,
  "▁ଗୁଡ଼": 21505,
  "▁Director": 14621,
  "▁ଓଡ଼ିଆ": 2588,
  "▁Bavaria": 74849,
  "▁homel": 25263,
  "▁timefram": 33861,
  "ନୀର": 15184,
  "▁ଚାନ୍ଦପୁରୀଙ୍କ": 57506,
  "▁workers'": 17887,
  "▁ଏକାଉ": 51585,
  "▁ବଦଳା": 27148,
  "▁autumn.": 41674,
  "▁କଲ୍ଯା": 5458,
  "▁2003,": 17417,
  "▁ଭାଗ୍...": 29816,
  "▁tailored": 40783,
  "?\"": 45271,
  "▁unbrid": 47520,
  "▁emphatic": 56906,
  "/୧୬": 69548,
  "▁ଦଇବ": 70528,
  "▁କେଉଁ...": 50813,
  "▁reading.": 14230,
  "acro": 12815,
  "▁lowering": 32739,
  "▁ଭାରସାମ୍ଯ": 15286,
  "▁alread": 2430,
  "ୋଲିସ": 50938,
  "▁Smith": 57232,
  "▁ଦହିବରା": 58666,
  "ogg": 60925,
  "▁ଖୁସୀ": 38902,
  "▁ରାଲି": 18699,
  "▁ନୀରବଦ୍ରଷ୍ଟା": 69794,
  "▁ସୋଲଡ": 55550,
  "▁ସିଲିକ": 73841,
  "ced": 1753,
  "▁underm": 8761,
  "ବାଜି": 30045,
  "▁Money": 52903,
  "▁ଟୁର୍ନାମେଣ୍ଟରେ": 51686,
  "▁Union.": 3195,
  "▁ଅତୀ": 34966,
  "▁Queir": 72559,
  "\u0001": 13,
  "▁କାମ୍ପା": 64200,
  "▁disturbing": 31653,
  "ଳାଙ୍କ": 28542,
  "▁one-": 18166,
  "ସାରିଛନ୍ତି": 39229,
  "legislative": 51042,
  "▁ପୋଖରୀରୁ": 52328,
  "ଯାବ": 14498,
  "▁ଆଡଭାନ୍ସ": 21567,
  "thing.": 22993,
  "▁ପରମେଶ୍ବରଙ୍କୁ": 52659,
  "▁way:": 67881,
  "▁undermines": 27647,
  "ଟିକିଆ": 43476,
  "▁ବହୁଜନ": 51440,
  "▁୩୩": 9093,
  "ଲେରିଆ": 14932,
  "rot": 23085,
  "▁ନବରାତ୍ର": 37824,
  "▁discount": 58503,
  "iness": 3683,
  "ାତୀ": 45644,
  "▁ଦୁର୍ଗମ": 26587,
  "▁ନିତ": 18726,
  "▁ଏନିମିଯା": 65844,
  "ହି": 1088,
  "▁cens": 15834,
  "▁ହେଉନାହିଁ।": 38578,
  "▁ପରାଜିତ": 22086,
  "▁democratisation": 21430,
  "▁themes": 34419,
  "ମେରିକା": 42268,
  "▁ଖାଲରେ": 71147,
  "ପାଲଟି": 54451,
  "▁ଉଠୁଥିଲା": 58175,
  "▁ହାତଗଣତି": 61200,
  "▁ଗସ୍ତ": 5103,
  "▁ତଥାପି": 7928,
  "ieu": 72230,
  "▁prohibited": 29703,
  "otiable": 53424,
  "▁ଜେଟ": 14565,
  "▁education.": 16821,
  "▁ମାର୍ଚ୍ଚରେ": 49330,
  "▁ପ୍ରଦର୍ଶନୀ": 16346,
  "▁ଚଢା": 57068,
  "ional": 9331,
  "▁time-consuming": 71773,
  "▁ପେସାରେ": 67929,
  "▁houses": 31650,
  "cell": 51242,
  "👨": 957,
  "worthiness": 73451,
  "▁29": 9591,
  "▁ଚକ୍ଷୁ": 17789,
  "▁ଉଚିଚ": 39497,
  "▁ଜାପା": 63359,
  "▁ନିର୍ବାସିତ": 74541,
  "▁ଭାରରୁ": 70865,
  "ସଂଖ୍ଯ": 23406,
  "▁ପଇଠ": 33985,
  "▁(୧୪": 40738,
  "▁slowly,": 65152,
  "ପଡ଼ାର": 27736,
  "pplause": 8414,
  "▁foodstuffs,": 54147,
  "▁ପ୍ରେମିକ": 9546,
  "▁sub": 1945,
  "▁develops": 41543,
  "ାରୁଆ": 34085,
  "▁ପ୍ରଭୁ": 6990,
  "▁ଦେଖିଥିବେ": 43514,
  "▁ନାଯକ": 4990,
  "▁ଆଇପିଏସ୍‌": 39240,
  "ନାଥଙ୍କ": 43603,
  "▁ସିଲଭର": 51026,
  "▁ବସି": 4179,
  "▁ସାଙ୍ଗରେ": 12319,
  "▁ବାଂଟ": 51097,
  "ár": 58220,
  "Я": 354,
  "▁ମୂଳ": 5329,
  "▁ସନ୍ଧାନ": 11766,
  "▁କଥାକୁ": 11585,
  "▁ବିତ୍ତୀଯ": 65527,
  "▁mortality": 33269,
  "▁ଡିମାଣ୍ଡ": 41893,
  "▁ମାଲ୍": 68539,
  "▁ଜଯଲଳିତାଙ୍କ": 43364,
  "▁dup": 21103,
  "ଣକୁ": 55813,
  "": 904,
  "▁references": 18856,
  "▁ନ୍ଯାସନାଲ୍": 51667,
  "▁ଅଙ୍ଗର": 35436,
  "▁କର୍ପୋରେଟରଙ୍କ": 65518,
  "▁ଆମ୍ବୁଲାନ୍ସ,": 70896,
  "5­": 50767,
  "▁(୧୯୮୧)": 64639,
  "ୋତ୍ର": 35025,
  "▁je": 13551,
  "▁terror,": 57607,
  "puted": 69552,
  "▁ସହଜେ": 68538,
  "▁capitalist": 25756,
  "▁ତକ୍ରାଳୀନ": 56221,
  "▁levies": 56781,
  "▁ଉଠିଲେ,": 49899,
  "ଂଗ୍": 59702,
  "▁infrastruct": 6482,
  "▁ଭିଡ଼ିଓରେ": 43048,
  "▁ଚିଲିକାକୁ": 66088,
  "୍ବ": 4726,
  "୨୦୧୨": 22227,
  "▁focu": 37084,
  "▁ଖଲ୍ଲିକୋଟ": 40239,
  "▁operate,": 58520,
  "ither": 4278,
  "▁ବଡଦା": 35858,
  "ଲାରେ": 13547,
  "▁୨୦୮": 62480,
  "▁patri": 47698,
  "▁conserv": 21797,
  "▁୨୦୧୮": 4139,
  "▁ଅର୍ଥନୀତିକୁ": 46090,
  "ligious": 68270,
  "ଜିକାଲ": 42483,
  "▁Articleବି": 32431,
  "ଛଡ଼ା": 25249,
  "▁on?": 54992,
  "¦": 126,
  "▁ଦାମବାବୁ": 59258,
  "▁କୋ-ଅପରେ": 69262,
  "▁woman,": 54708,
  "▁ମସିହା,": 23439,
  "▁frontiers": 31066,
  "▁conferences": 23910,
  "afe": 34444,
  "ଘରେ": 14244,
  "▁ଉଦ୍ଦିଷ୍ଟ": 16689,
  "▁mag": 24506,
  "▁barriers,": 41389,
  "ଖୁଣ୍ଟ": 50563,
  "କୈ": 51074,
  "ଲକ": 3858,
  "▁ନାଲିବ": 55546,
  "▁collaboration.": 62317,
  "▁ବ୍ଯବଛେଦ": 43495,
  "▁ସୋ’ରୁ": 44499,
  "▁ପ୍ରଦୂ": 9107,
  "Live.": 56816,
  "how": 24932,
  "▁ବନ୍ଦରର": 34051,
  "▁approximation": 35836,
  "▁Grosset": 38377,
  "▁ଭାବଗ୍ରାହୀ": 52748,
  "▁ମନ୍ଦ": 13469,
  "version": 50168,
  "▁ତୁତ": 56064,
  "▁ଅଙ୍ଗାର": 37254,
  "▁till": 53412,
  "ctory": 36245,
  "ଟନ୍‌": 43378,
  "▁activity-based": 70480,
  "▁ଚିକେନ୍‌": 50895,
  "▁ପଡ଼ିଆରେ": 19294,
  "▁desk": 65365,
  "▁ଯୁଜର": 26910,
  "▁ଅରୁଚିକର": 49961,
  "▁ଇଲେକ୍ଟ୍ରିକ୍‌": 43254,
  "▁ଭାଙ୍ଗିଗଲା": 44523,
  "▁କ୍ରାଉ": 66436,
  "▁PSE": 14169,
  "▁ଆକା": 67184,
  "▁prevailing": 28529,
  "▁maf": 35205,
  "▁Orb": 67310,
  "▁ଫେକ": 56252,
  "କଶ୍ମୀର": 60373,
  "att": 18635,
  "▁Portugal,": 17280,
  "▁pers": 2737,
  "▁ଯୁଜବେନ୍ଦ୍ର": 59376,
  "▁ଶାରି": 28306,
  "ବ୍ଯାଙ୍କ": 26369,
  "▁ରଣ": 5010,
  "▁ଖରାଟିଆ": 66360,
  "▁ଅମରାବତୀ": 72889,
  "▁incap": 21906,
  "👩": 958,
  "▁ଊର୍ଦ୍ଧ": 12868,
  "▁hopefully": 19548,
  "▁ବ୍ରହ୍ମା": 16269,
  "▁ଆସନ୍ତାକାଲି": 6791,
  "▁ଗଣ୍ଡଗୋଳ": 17934,
  "▁ଅନାବଶ୍ଯକ": 33002,
  "▁ନ୍ଯ": 2308,
  "ଭିଜ": 17505,
  "ଗୋଳରେ": 21946,
  "ଏଫ": 9513,
  "▁ଧାମନଗର": 24395,
  "▁unreason": 27381,
  "▁ଦୁଇଭାଇ": 52586,
  "▁assurances": 25618,
  "oe": 14867,
  "▁come.": 20705,
  "▁CIS": 54005,
  "of": 7699,
  "▁ରସଗୋଲା": 16132,
  "▁Union:": 35984,
  "▁ପ୍ରସ୍ତୁ": 2704,
  "▁voices": 24843,
  "▁planet": 25857,
  "▁abolishing": 27150,
  "▁Gah": 41535,
  "▁regimes.": 45776,
  "▁ବଞ୍ଚି": 12663,
  "▁completely.": 43849,
  "▁୧୯୬୧": 46207,
  "▁138": 48883,
  "▁ଟାଣିବା": 49653,
  "ଦୀ": 1999,
  "▁prosecutions": 74259,
  "▁ଚକାତଳେ": 69713,
  "କ୍ଷକ,": 71832,
  "▁ପରିସମାପ୍ତି": 58891,
  "-finding": 56323,
  "▁୧୫ଶହ": 65373,
  "▁ଧନା": 45889,
  "▁ଭିତିରିଆ": 58143,
  "verg": 67511,
  "antic": 37865,
  "▁ଦିଏ": 10747,
  "▁levels.": 17230,
  "▁୨୦୦୮": 22098,
  "▁ମୃତେ": 42112,
  "૶": 533,
  "▁ବିଧାଯକ,": 19520,
  "ଯାର୍": 25463,
  "▁କୋଇଲି": 47726,
  "▁administrative": 6694,
  "▁ଜାଣିପାରିଲେ": 61324,
  "▁ଓଡିଶା": 2607,
  "▁ଦେ,": 62461,
  "▁ସାମଗ୍ରୀର": 28875,
  "▁sitt": 16644,
  "▁cultures,": 40223,
  "▁Portugal's": 68733,
  "▁ଗୁଡ଼ାଇ": 65335,
  "ounds": 31744,
  "▁୨୩,": 47567,
  "▁passionate": 44324,
  "ୂନ": 39585,
  "▁ସରୋଜ": 15809,
  "▁Oostlander": 39185,
  "ber,": 34302,
  "▁।୨୨": 53998,
  "ଗୌଡ଼ା": 62086,
  "▁supply,": 26897,
  "-van": 65560,
  "▁secure": 9122,
  "ୁତ": 9174,
  "▁prudential": 50885,
  "▁ମଞ୍ଜୁର": 14266,
  "ଦାଯିତ୍ୱ": 41107,
  "▁encephal": 67211,
  "▁ଡ଼ାକ": 52148,
  "isth": 73101,
  "▁equal,": 61485,
  "ମାସରେ": 21734,
  "▁apologise": 23411,
  "▁ନିମ୍ନରୁ": 30279,
  "▁evidenced": 60620,
  "▁pertain": 57100,
  "ମ୍‌,": 17121,
  "▁rather": 3643,
  "ଫ୍ରେଣ୍ଡ୍‌": 58391,
  "▁contribute,": 66639,
  "▁vice-president": 72163,
  "az": 7192,
  "x,": 29880,
  "▁months,": 12674,
  "▁ଜୋରରେ": 25038,
  "▁Chris": 64226,
  "▁ଧୂପ,": 62362,
  "ଚରା": 11806,
  "ାତି": 62719,
  "କରୀଙ୍କ": 58293,
  "▁ଶ୍ରୀଲିଙ୍ଗରାଜ": 59374,
  "▁traceability,": 65480,
  "▁tail": 26502,
  "▁କେଜ୍ରି": 25532,
  "କୁଳ": 8333,
  "▁closed,": 48871,
  "▁ଗ୍ରହ": 13879,
  "ନ୍ନାଚଂଳ": 33319,
  "ମିଛ": 6581,
  "▁contest": 36819,
  "▁ପାରୋଲ": 71898,
  "▁arose": 32636,
  "▁constituted": 44978,
  "▁risking": 60963,
  "05": 26238,
  "▁verbatim": 58198,
  "▁self-crit": 73025,
  "▁ଓପିନିଯନ": 74405,
  "▁ଡିସ୍କ": 58283,
  "▁Out": 34132,
  "▁transparent": 7837,
  "▁ଓ୍ବା": 21576,
  "▁ଲିଟେର": 72290,
  "▁tests": 16214,
  "▁ପଶିଲେ": 33887,
  "▁Kreh": 68919,
  "▁ଉତ୍ସୁକତା": 65250,
  "▁Europe": 1179,
  "arse": 43918,
  "▁fragmented": 37673,
  "ନ୍ୱ": 9281,
  "▁Jarz": 25840,
  "▁ଦିଆଯାଇନି": 63954,
  "▁gallery": 41762,
  "▁ଭାରୋତ୍ତ": 51002,
  "ସ୍ପନ୍ଦନ": 64297,
  "a": 80,
  "▁ଏପର": 5332,
  "▁ପଡ଼ିଥିଲେ": 38669,
  "▁ଜିତେ": 63414,
  "ଥିଲୁ": 9408,
  "rooted": 50157,
  "▁agreement;": 74545,
  "criptions": 50118,
  "▁ଏମ୍.ସି.ଏଲ୍": 49835,
  "stood": 10855,
  "▁nutr": 25199,
  "▁reports,": 16763,
  "▁equipment.": 33213,
  "▁ବର୍ଷାଜଳ": 50345,
  "▁tax-free": 69692,
  "▁ଟି’…": 54268,
  "TT": 74899,
  "▁ତତ୍ତ୍ଵ": 35704,
  "iced": 16121,
  "▁ବ୍ଲକଗ୍ରା": 47964,
  "▁ପକ୍ଷ": 2122,
  "▁IMO": 40990,
  "▁ଜୁଏଲ": 14956,
  "▁ଶିଖ୍": 59510,
  "▁ମରିବାର": 73765,
  "▁foreseeable": 32809,
  "▁formerly": 42642,
  "▁species.": 35045,
  "▁ଦୋକାନୀଙ୍କ": 61746,
  "ଦ୍ର": 2259,
  "▁ଖ୍ରୀ": 8648,
  "▁ଖୋଳ": 13417,
  "▁random": 42885,
  "ଭୋଗ": 12250,
  "▁deal.": 31985,
  "▁ବୃହତ୍": 35884,
  "▁ଖେଳନାର": 42415,
  "▁ସଚିବାଳଯଠାରେ": 56774,
  "▁ମତରେ,": 53874,
  "▁rape,": 63806,
  "▁ନିରାପତା": 70903,
  "▁ପଙ୍ଗୁ": 48822,
  "▁ଗଣିତ": 16726,
  "▁ସାଇବାବା": 59981,
  "ାମ,": 35663,
  "SA": 25436,
  "▁ବ୍ଯକ୍ତ": 8856,
  "▁propose.": 73290,
  "▁ଅଧିଷ୍ଠାତ୍ରୀ": 52205,
  "▁prevent,": 58056,
  "forest": 26220,
  "-int": 18327,
  "▁repressive": 25495,
  "▁resum": 11250,
  "ିନଥିଲେ": 17987,
  "ଚରିତ": 32662,
  "▁କନ୍‌କ୍ଲେଭ୍‌": 46963,
  "ସେଲ୍": 56280,
  "▁Ref": 23078,
  "▁ଉତ୍ତରପ୍ରଦେଶ": 10599,
  "▁partially": 26349,
  "ଆଦି": 74420,
  "▁ଷଡଙ୍ଗୀ,": 73825,
  "▁labels": 34822,
  "ିବୃଦ୍ଧି": 62726,
  "୬୭୦": 30474,
  "େଶା": 15265,
  "▁ବାବାଙ୍କୁ": 49627,
  "▁alternative": 7753,
  "ାଇନ୍": 51877,
  "▁Piqu": 74462,
  "-20": 33276,
  "ସିଟି": 8611,
  "▁ପାରୁଥିବା": 56128,
  "▁“ଏହା": 44718,
  "▁ଅଭିଯାନ’": 73263,
  "▁ଅଧ୍ଯାପକଙ୍କ": 39249,
  "▁ଟାଣି": 14949,
  "▁ପଂଚାଯତ": 9863,
  "▁Chandra": 36203,
  "▁ନିଷିଦ୍ଧ": 20310,
  "▁ରହିଥିବାବେଳେ": 28414,
  "▁ଉଠାନ୍ତୁ": 53954,
  "▁ଭିତରର": 38549,
  "▁da": 22289,
  "▁ପ୍ରସାଦଙ୍କ": 39788,
  "▁ପ୍ଲେଟ୍": 66364,
  "ଲେଶ୍ଵର": 71839,
  "▁yourself,": 38247,
  "▁decisions.": 15171,
  "▁integrity": 18232,
  "▁ଜାଣିପାର": 25312,
  "▁medicine,": 55721,
  "▁multif": 34711,
  "▁ଓ୍ଵାଇ": 36416,
  "▁ମୋଟ୍‌": 37229,
  "▁ଜଳଲାଗି": 65070,
  "ul": 1165,
  "ାଗ୍ନି": 34594,
  "▁କାର୍ଯ୍ଯକ୍ରମ।": 58298,
  "ବହି": 70277,
  "▁ଗଜାନନ": 48751,
  "▁ଜନହିତ": 44834,
  "ାମୁଦ୍ରା": 66991,
  "▁ବିଗ୍ରହ": 26750,
  "▁Dybkjæ": 68475,
  "▁M": 1129,
  "▁ଅଶ୍ୱ": 14273,
  "))": 62122,
  "▁Lib": 14103,
  "▁ଦେବତାଙ୍କୁ": 48920,
  "▁partner": 6925,
  "▁ଶତପଥୀ": 19719,
  "▁ଇଲେକ୍‌": 52473,
  "▁ସର୍ବେ": 17709,
  "▁public's": 44833,
  "▁operative": 53872,
  "▁ଗପ,": 63762,
  "▁Natura": 25125,
  "ଉଇକିପିଡ଼ିଆ": 51688,
  "ାରୋହଣ": 67416,
  "▁ରିଲିଜ,": 72878,
  "▁simplest": 73737,
  "▁ଠାକୁରଙ୍କ": 21792,
  "▁ECHO": 22554,
  "ratt": 21465,
  "▁profound": 16424,
  "▁।୧୧": 31767,
  "ସଲେ": 54978,
  "▁appe": 4130,
  "▁util": 18122,
  "▁ଚାମ": 12642,
  "▁participants.": 68266,
  "ଏତ": 73082,
  "थ": 448,
  "ours": 31034,
  "▁ଘଟିଲେ": 52274,
  "▁କାଇ": 40560,
  "▁ଚା’": 11180,
  "▁ଲୋଡ଼": 46650,
  "▁aggravating": 72121,
  "▁Pasty": 70241,
  "heric": 47935,
  "▁ଖଣି": 6950,
  "ଥରେ": 8917,
  "▁Alps": 59498,
  "▁କାରଖାନ": 58399,
  "▁ପ୍ରଶଂସାର": 51962,
  "▁Arct": 57366,
  "▁ଓଭରବ୍ରିଜ୍": 48395,
  "▁କାରଣ": 2301,
  "▁ପ୍ରାରମ୍ଭିକ": 15059,
  "▁Nichol": 40064,
  "▁umbrella": 46474,
  "ଥାଏ।": 2813,
  "▁ମାର୍ଶାଘାଇ": 42587,
  "▁ଛାଡ଼ିବାର": 59757,
  "▁ଅନିଦ୍ରା": 19317,
  "ante": 63290,
  "▁unknown.": 74329,
  "▁ଡକ୍ଟରେ": 58257,
  "▁ଆସିବା": 6082,
  "▁provided,": 37238,
  "▁ମାମୁ": 34144,
  "▁ଛାଡପତ୍ର": 34765,
  "▁ନୁହନ୍ତି।": 38618,
  "ଫିର": 49399,
  "▁There": 2227,
  "ଡ଼ାର": 20593,
  "▁ଅନ୍ନଦାତା": 50732,
  "▁ନୌସେ": 74727,
  "▁ର୍ଯା": 37013,
  "▁ପ୍ରଲୋଭନ": 35325,
  "▁Rome": 14595,
  "▁Church": 30099,
  "▁ମନ୍ତ୍ରାଳଯକୁ": 53918,
  "▁expedite": 70603,
  "▁mark": 1929,
  "▁retention": 27299,
  "▁ପୋଡ଼": 35104,
  "▁ପ୍ରମାଣପତ୍ର": 16313,
  "▁statements.": 38832,
  "▁ଗାଈର": 45234,
  "▁ହବୋ": 45513,
  "▁ଚାର୍ଜସିଟ": 48257,
  "ପ୍ତର": 35095,
  "▁ମନୋକାମନା": 68124,
  "▁ଆଇଟିଡିଏ": 46689,
  "▁ଯୁଜ": 43725,
  "’": 765,
  "▁ତନ୍ମ": 36810,
  "▁ଗର୍ଭାଶଯ": 27185,
  "▁Ind": 5112,
  "▁ଗଢି": 22953,
  "▁କ୍ଵ": 71119,
  "▁agreements.": 12862,
  "▁ଦେହରୁ": 36081,
  "▁ଅନ୍ଯମାନଙ୍କର": 61188,
  "▁Another": 10065,
  "▁ଶୃଙ୍ଖଳିତ": 23579,
  "▁shorter": 32078,
  "▁Sport": 23417,
  "▁paving": 55890,
  "▁ଥାଉ,": 73363,
  "▁ଅଣ୍ଡାରେ": 69217,
  "▁detailed": 9280,
  "▁ପଲେଷ୍ଟୀଯ": 40789,
  "▁ଗିରଫ:": 61952,
  "▁Europe’s": 13743,
  "▁ଚଳପ୍ର": 43105,
  "▁ପ୍ରସାଦଙ୍କୁ": 62002,
  "▁ଜୀବାଶ୍ମ": 25616,
  "▁ଫୋର୍ବସ": 72456,
  "▁comfort": 25935,
  "opher": 52733,
  "ଭଦ୍ରକ": 29083,
  "▁୭:": 54039,
  "▁easier": 9737,
  "▁ରୋମାଣ୍ଟିକ୍‌": 54584,
  "▁(ERV-O": 26594,
  "ର୍ଯ୍ଯା": 61619,
  "▁inescap": 74918,
  "▁ଗାନ": 22763,
  "ପାସ୍": 65940,
  "▁ଅଟକିଛି": 52303,
  "▁deeper": 25517,
  "▁ଓପନିଂ": 57224,
  "▁ନିର୍ଦ୍ଧ": 33492,
  "▁କହିଥିଲା।": 51433,
  "ଲେଙ୍କ": 52907,
  "▁ପ୍ରତୀକ୍ଷିତ": 36091,
  "urers": 48194,
  "▁ଜ୍ଞାନକୌଶଳର": 62096,
  "▁କେହିବି": 50334,
  "▁ହାତେଇଲା": 55129,
  "▁greatest": 8800,
  "▁position.": 10509,
  "▁ସ‌": 20896,
  "▁ରୁହନ୍ତୁ,": 43243,
  "▁ଏବେଠୁ": 43290,
  "▁signalling": 65364,
  "▁Tunis": 13490,
  "କ୍ଷିକ": 17414,
  "▁welfare,": 36294,
  "▁ହୁସେ": 48462,
  "▁inflex": 34761,
  "▁ଆବରଣ": 55394,
  "▁self-determination,": 68066,
  "▁ମିଳିଲା।": 62270,
  "ଡିବାକୁ": 67814,
  "▁ଅସ୍ତିତ୍ୱ": 42371,
  "ffic": 63891,
  "▁interaction": 30160,
  "▁ସଂସାରର": 51512,
  "BDE": 64411,
  "▁ସୁଇଚ୍": 60053,
  "▁perspective.": 19528,
  "▁ମତରେ": 16764,
  "▁Confederation": 49659,
  "\"": 17,
  "bit": 11161,
  "ିଆଣି": 74069,
  "keepers": 46822,
  "▁କୀର୍ତ୍ତି": 22666,
  "▁ସର୍ବକ୍ଷମା": 49900,
  "▁ଚାଲ୍": 51100,
  "▁ଓହ୍ଲାଇଥିଲେ": 68357,
  "▁ଆତ୍ମବିଶ୍ୱାସ": 25166,
  "▁announcement": 22104,
  "▁applied": 7050,
  "▁persuade": 19569,
  "▁ପଦର": 44604,
  "▁could": 2380,
  "▁Kyoto": 12730,
  "▁କାର୍ତ୍ତିକ…": 60549,
  "▁ନିର୍ଦେଶନାମା": 73300,
  "▁resurg": 71472,
  "▁Ky": 9861,
  "ଦଳନ": 46481,
  "ଅଛି": 7905,
  "▁ହେବାପାଇଁ": 36960,
  "▁disappearing": 59308,
  "▁କିଣିଛନ୍ତି": 67357,
  "▁କଥା,": 17144,
  "▁କୁହାଯାଉଥିଲା,": 68307,
  "▁କାହାକୁ": 7651,
  "▁Kosovo.": 18878,
  "୧୭": 8870,
  "▁Schem": 49317,
  "▁ଦିଅର": 51137,
  "▁ଆଟ୍ର": 10498,
  "ସଭାପତି": 14149,
  "୪]": 12990,
  "ଲଗ": 39428,
  "▁୧-୧ରେ": 62464,
  "ulth": 63883,
  "▁ବର୍ଷରୁ": 10645,
  "▁“ଦ": 51453,
  "ପ୍ରସାରିତ": 38054,
  "▁scenes": 58838,
  "ାବାବା": 68890,
  "▁ବିଦାଯ": 15564,
  "▁course": 2577,
  "▁Poland": 8817,
  "▁sensible,": 48915,
  "▁ଛାତ୍ରଛାତ୍ରୀଙ୍କୁ": 14822,
  "ivity": 10536,
  "▁reinforces": 36866,
  "▁fear,": 34994,
  "ଙ୍ଗଙ୍ଗ": 74039,
  "▁2016": 9806,
  "▁ରହିଛି।”": 66930,
  "▁ମୃତ,": 6346,
  "▁Council's": 8658,
  "emocratic": 19138,
  "ରାଜୀରେ": 24838,
  "▁semin": 30037,
  "ଗୁଲଜ": 32003,
  "▁ଠା": 7583,
  "▁ଅତୁଳନୀଯ:": 43359,
  "▁ନାଗୁଣୀ": 16703,
  "▁conservation,": 73394,
  "▁ଆଡଲ୍ଟ": 65726,
  "ପାଣି": 13462,
  "▁କିର": 17397,
  "▁flexibility.": 32340,
  "ଜାବେ": 71797,
  "▁ଅମ୍ଳ": 21396,
  "ଣ୍ଡେଲ": 31845,
  "ମ୍)": 35593,
  "▁He": 4674,
  "ଟ୍ରେ": 24085,
  "▁published.": 51167,
  "▁ନେଇପାରିବେ।": 54250,
  "▁diff": 1964,
  "▁teach": 11582,
  "କି?": 9636,
  "▁ମନୁଷ୍ଯର": 30851,
  "▁ଗାଳ୍ପିକ": 38500,
  "▁net": 4660,
  "▁applying": 10890,
  "▁ପ୍ରାର୍ଥୀପତ୍ର": 36854,
  "▁want.": 23316,
  "▁Par": 11306,
  "▁Chechnya.": 33383,
  "▁ତିତ୍‌ଲି": 33436,
  "▁ଦେଖାଦେଇଥିଲା": 44064,
  "▁ତଦନୁଯାଯୀ": 59385,
  "▁inconsist": 20338,
  "▁ମହାକାଳ": 21846,
  "▁ସୋସିଆଲ୍‌": 16109,
  "▁ଦାଯକ": 38565,
  "▁mispl": 71196,
  "▁challenged": 41469,
  "▁ଔ": 4474,
  "▁ରନୱେ": 66061,
  "▁ପଡୁଥିଲା।": 72065,
  "erc": 31343,
  "ities,": 11363,
  "▁ଫୁଲ୍": 63374,
  "▁ପାଲଟିଲା": 36713,
  "▁ମୂଳୋତ୍ପାଟନ": 28721,
  "୬,": 12740,
  "ିତ୍ରାଣ": 22250,
  "▁disag": 10968,
  "▁wordings": 58755,
  "▁ଆଇସିଆଇସିଆଇ": 33574,
  "▁୫ଟାରୁ": 54637,
  "▁୪୦୩": 70073,
  "ଦ୍ୱୀପରେ": 59253,
  "▁ଫୁଟାନ୍ତୁ": 72556,
  ".ଏ)": 48211,
  "ash": 5424,
  "▁ମିଳିବାର": 27873,
  "iment": 16885,
  "▁crucially": 40517,
  "▁ବସ୍‌ଟି": 44972,
  "▁inh": 9413,
  "▁vic": 42194,
  "▁ହୋଇନାହି,": 45152,
  "ophob": 13272,
  "▁reop": 39908,
  "▁)-": 59659,
  "▁'soft": 73640,
  "ina.": 33390,
  "ଲ୍": 1701,
  "▁ରେକର୍": 5498,
  "▁ନୁହଁନ୍ତି।": 50557,
  "▁ସର୍ଭି": 14183,
  "ମୁରା": 51562,
  "ସ୍ପ": 7863,
  "▁off,": 34816,
  "▁କାଉଁ": 49347,
  "pective": 6164,
  "▁ବିନି": 9278,
  "▁Regulation.": 29292,
  "-ବିର": 47172,
  "▁det": 2880,
  "uring": 2632,
  "▁କୂଲଦୀପ": 52881,
  "▁Annual": 26589,
  "▁monopolies": 25926,
  "▁୬୦ଟି": 43629,
  "▁8,": 14812,
  "▁codes": 29474,
  "▁defensive": 40503,
  "▁କେ…": 58937,
  "▁କରିଦିଅ": 27590,
  "▁finance.": 45186,
  "▁Kosovar": 52802,
  "▁ଜ୍ଞାନ,": 49470,
  "▁operate": 11179,
  "▁ଜିତେନ୍ଦ୍ରିଯ": 66394,
  "ମଲ୍ଲିକ": 20801,
  "▁ପଡିବା": 24556,
  "▁stages.": 51750,
  "▁ଦେଣ": 48561,
  "▁ଆନ୍ଧ୍ରର": 33080,
  "ାବାସୀ": 19658,
  "▁ଫ୍ଯା": 9820,
  "ମଣ୍ଡଳ": 16470,
  "▁,ସ": 19058,
  "▁ଜାବ": 47236,
  "ଙ": 568,
  "▁ଅପମାନିତ": 27708,
  "▁disappear,": 74276,
  "▁involved": 4619,
  "▁Bal": 8715,
  "▁ଖୁସ": 44502,
  "▁Their": 15204,
  "▁ଗୁପ୍ତା": 17611,
  "▁ମାଷ୍ଟରକ୍ଯାଣ୍ଟି": 54189,
  "ଦାନନ୍ଦ": 19705,
  "ବଳ": 7440,
  "▁ମୁଖ୍ଯମନ୍ତ୍ରୀଙ୍କୁ": 9487,
  "▁ନିର୍ଦ୍ଦିଷ୍ଟ": 11494,
  "େର": 4318,
  "▁900": 41015,
  "▁କାର୍ଯ୍ଯକାର": 24413,
  "▁ଐଶ୍ୱର୍ଯ୍ଯାଙ୍କ": 46566,
  "▁ସମତା": 32215,
  "▁ବାଙ୍ଗାଲୋ": 33993,
  "▁occurred.": 48523,
  "▁proverb": 52369,
  "-pl": 52883,
  "▁ପ୍ରହରାଜ": 59831,
  "▁କାନୁନ୍‌ଗୋ": 63558,
  "▁ମ୍ଯୁନିସିପାଲିଟି": 69867,
  "▁ଭାରତ-ଆ": 70482,
  "▁ଏକଲବ୍ଯ": 53072,
  "▁ପ୍ରଶଂସାରେ": 44645,
  "ଦେଲି": 44387,
  "▁କରୁଛନ୍ତି।": 6563,
  "▁ଅର୍ଥରାଶି": 45320,
  "▁କନ୍ଯାଙ୍କ": 56113,
  "▁ଦେଇଥିଲେ": 4774,
  "▁holder": 41131,
  "▁ଆର୍କ": 42611,
  "▁,ସେ": 53266,
  "▁variable": 44264,
  "▁କୋଳି": 36821,
  "▁ମଥା": 43802,
  "▁precond": 17792,
  "ସଂହିତା": 49764,
  "▁cares": 62530,
  "▁ପଶ": 12055,
  "▁ଦେଶଭକ୍ତ": 68205,
  "ତାରୁ": 21374,
  "▁Guatemala": 52201,
  "▁liked": 17431,
  "▁health,": 11692,
  "▁tabling": 22216,
  "▁ଜ୍ଯୋତିର୍": 38468,
  "▁range": 9106,
  "rising": 57296,
  "▁ଖୁଲମ": 68111,
  "▁ଗୋରଖପୁର": 47620,
  "▁ବ୍ଯଙ୍ଗ": 30567,
  "ପ୍ରୁଫ୍‌": 55372,
  "▁ତୁମ୍ଭ": 3466,
  "▁ବ୍ଯାଟସ୍‌": 44714,
  "phere": 10646,
  "▁Tel": 44696,
  "▁Tim": 16064,
  "▁ରହିବେ,": 58363,
  "▁ମୁସ୍କିଲ୍": 72104,
  "15": 16710,
  "▁ଲାଇନରେ": 36689,
  "▁ହିକ": 63272,
  "▁overs": 74091,
  "ସଙ୍ଗ": 12763,
  "▁ଖଇରପୁଟ": 72571,
  "-Mar": 74243,
  "▁ନୂଆପଡ଼ା:": 27808,
  "▁across": 5740,
  "▁ବୈଶାଖୀ": 71727,
  "▁18%": 70818,
  "▁easiest": 64555,
  "▁ମର୍ଚା": 64334,
  "-life": 38171,
  "▁rapporteur’s": 32520,
  "▁ସୃଷ୍ଟ": 10489,
  "ଫ୍ର": 26185,
  ".ଏସ୍.": 30862,
  "▁ଈଶ୍ୱରଙ୍କୁ": 61544,
  "usp": 27077,
  "▁singled": 71353,
  "▁୯ହଜାର": 71906,
  "▁ଫୈ": 51094,
  "▁ରାଉତ": 8103,
  "କାରୀଙ୍କ": 8634,
  "▁Strasbourg.": 23773,
  "▁Island": 31433,
  "▁ମାଙ୍ଗ": 34412,
  "▁Life": 39361,
  "▁ରାଉଣ୍ଡରେ": 40200,
  "▁ଯବନ": 62146,
  "▁ମମତା,": 70144,
  "▁flexible.": 42762,
  "▁ନିଅ,": 70867,
  "▁ମିଲେ": 71437,
  "▁ରାକ୍ଷସୀ": 57915,
  "▁ଜଙ୍ଗଲ,": 67617,
  "ସୂ": 7328,
  "▁ରେମୁ": 40177,
  "▁media.": 24052,
  "▁coverage": 29824,
  "▁eliminated": 35633,
  "▁ଏ,": 53619,
  "▁ଗଣ୍ଡଗୋଳ,": 58158,
  "▁ତେହଜିବ": 43507,
  "▁ଅତୀତରେ": 20194,
  "ରାଙ୍କ": 30350,
  "▁ନିତାନ୍ତ": 39895,
  "▁ଛାଡିବ": 62273,
  "୮,": 13841,
  "ଢମାଳି": 67815,
  "▁ଚିନ୍ତନ": 41924,
  "▁୩୫୦୦କିଲୋ": 74846,
  "▁cancelling": 58615,
  "▁ପଢା": 26488,
  ":20": 37345,
  "ଲ୍‌’କୁ": 45537,
  "▁Ingredients": 69975,
  "ଡିଏସ୍": 41733,
  "▁ତାମିଲନାଡ଼ୁ": 24579,
  "dent": 55178,
  "▁ସାଧକ": 48061,
  "▁ଅଶୁଭବେଳା": 43663,
  "▁or,": 12719,
  "ao": 32166,
  "▁ଇଭିଏମ୍‌": 59601,
  "▁candidacy": 68298,
  "(2).": 63531,
  "▁Air": 18044,
  "rup": 6117,
  "▁ମେଳରେ": 57913,
  "esis": 36117,
  "▁unfin": 69387,
  "ପାସ୍‌": 16863,
  "▁delegated": 33369,
  "▁Fifty": 72942,
  "▁consumption.": 26079,
  "ଣ୍ଢ": 14403,
  "ାଯ,": 46010,
  "▁Marín": 52319,
  "ro": 1050,
  "▁lugg": 65308,
  "▁ପାଳି": 14411,
  "▁emerging": 16026,
  "▁powers.": 21624,
  "▁rests": 34760,
  "▁ସ୍ୱଯଂସ": 39891,
  "▁childhood": 43111,
  "▁ମେଡିକାଲରୁ": 66988,
  "ଗାଜ": 73992,
  "ଲିଟି": 13951,
  "▁ରଣଜୀ": 28836,
  "▁Magn": 70302,
  "▁କାଟ୍ରୋ": 65626,
  "▁Pro": 3152,
  "▁2012,": 42108,
  "▁ପ୍ରେଷ୍ଟି": 49286,
  "▁disquiet": 54443,
  "▁୮୪ଟି": 70921,
  "ଚ୍ଛାସେବୀ": 18507,
  "▁marketing": 14563,
  "▁shown,": 40525,
  "▁-ଅ": 54012,
  "ାଯତର": 9532,
  "ion": 1036,
  "▁confirms": 20825,
  "▁ସ୍ୱରୁପ": 55845,
  "।୭-": 49066,
  "▁approved)": 49482,
  "▁ଯୋଗାଇଦେବାକୁ": 49616,
  "▁countries?": 29388,
  "▁ମଜୁ": 22594,
  "▁45": 17565,
  "ବିରତି": 28786,
  "▁ମ୍ଯାନ୍": 38305,
  "▁ନାମର": 41998,
  "▁ରଙ୍ଗ।": 37115,
  "▁ଏଷ": 55821,
  "▁ପଏଣ୍ଟରେ": 58829,
  "▁ତାଠୁ": 71469,
  "▁ଦେହତ୍ଯାଗ": 73061,
  "▁sides.": 24775,
  "▁ଜ୍ୱରରୁ": 28811,
  "▁confines": 58284,
  "▁complementing": 72031,
  "⁠": 782,
  "▁compounded": 63642,
  "▁ମୁଖ୍ଯାଳଯ": 26139,
  "▁pornography.": 59604,
  "▁modalities": 61218,
  "▁ସୁଖ": 6728,
  "▁protected]": 42944,
  "▁ଓକିଲମାନେ": 63148,
  "▁ଅଧିକାରୀମାନଙ୍କ": 31554,
  "▁ସାଧନାରେ": 69096,
  "▁ଭାରାକ୍ରାନ୍ତ": 70634,
  "▁lives.": 16916,
  "▁ଯେମନ୍ତ": 67861,
  "▁149(8))": 49541,
  "ସ୍ବତ": 69048,
  "-benefit": 42015,
  "▁ପାଠପ": 10046,
  "loading": 41589,
  "▁Frankly,": 49531,
  "▁ନୋଇ": 73540,
  "▁lives,": 24807,
  "▁Macedonian": 52489,
  "▁ମୁମ୍ବାଇ,": 30889,
  "ଶ୍ୱେତା": 49923,
  "▁ନିଜକୁ": 5454,
  "▁ମୃତNext": 58731,
  "▁Again,": 29871,
  "land.": 66584,
  "ire": 1506,
  "(ପି.ଟି.):": 61804,
  "▁ଆଇଡି": 22771,
  "▁Hend": 49267,
  "▁full-time": 49459,
  "▁entered": 13091,
  "▁fashionable": 72988,
  "ଦିଅନ୍ତୁ": 33913,
  "▁standardise": 67928,
  "▁patients": 13050,
  "▁ଶୁଭରଙ୍ଗ:": 11804,
  "▁amaz": 34697,
  "▁(ଯୁ": 40492,
  "▁incor": 7188,
  "▁Es": 33012,
  "▁Singapore": 34223,
  "▁commission": 15661,
  "ipt": 35658,
  "▁ଓଳ": 58699,
  "▁ଓହ୍ଲାଇ": 12923,
  "ଭୀମ": 69858,
  "▁ଯୁଗଳଙ୍କ": 70940,
  "▁ଏସଟିଏ": 37309,
  "▁premium": 20534,
  "stat": 19497,
  "▁hands.": 33809,
  "▁୪୦୦": 14464,
  "▁ଅଲିମ୍ପିକ୍ସ": 33470,
  "▁redu": 2814,
  "ତ୍ସଲ୍ଯ": 33215,
  "▁ଜନସେବା": 46044,
  "▁ମାଆ,": 41378,
  "ସ୍‌ଫୁ": 49730,
  "▁profiles": 65709,
  "▁(ବଡ଼ଖବର,": 24454,
  "irt": 71837,
  "କ୍’": 61392,
  "▁ପ୍ରଶଂସନୀଯ": 42075,
  "▁ଇମ୍ପ": 55009,
  "▁Syrian": 38544,
  "▁unc": 8679,
  "diction": 14742,
  "▁Annex": 17423,
  "▁ହାଇଆଲର୍ଟ": 31762,
  "▁ଠାବ,": 32749,
  "▁fragmentation": 33526,
  "▁ସାପକୁ": 37904,
  "ିନୀ,": 40898,
  "unate": 4023,
  "▁କାର୍ଯ୍ଯାଳଯର": 29777,
  "▁ଶୀତରେ": 57861,
  "▁Telkämper": 67161,
  "▁ଛତିଆ": 69623,
  "ଗଲା।": 18046,
  "▁ଆଦିକୁ": 34824,
  "▁illegally.": 59267,
  "28": 23602,
  "▁ଦୀପିକାଙ୍କୁ": 36778,
  "▁tribute": 14945,
  "▁isolated": 22148,
  "▁advisable": 37336,
  "▁ମିଜୋରାମର": 56790,
  "▁Ministry": 29236,
  "▁ରଖିଥାଏ।": 38302,
  "▁Spenc": 46532,
  "▁ସମ୍ପାଦକୀଯ": 66999,
  "ମୁହିଁ": 7597,
  "▁ଘଟଣା,": 13861,
  "▁Un": 1380,
  "▁ସମ୍ବିଧାନର": 31451,
  "▁ହାସ୍ଯାସ୍ପଦ": 48283,
  "▁safeguard": 6600,
  ":54": 37978,
  "▁essentially,": 67583,
  "▁ଏ.": 15660,
  "▁cut": 5462,
  "ବାସ୍ତବ": 29607,
  "▁Nels": 72694,
  "▁(ଲ": 67525,
  "ଲାଙ୍ଗିର": 39080,
  "ପାଲିର": 74692,
  "▁scal": 16256,
  "▁ଉଜୁ": 29925,
  "ଢୁଆ": 50462,
  "▁ଘୁରି": 35220,
  "▁ଫିଙ୍ଗ": 21168,
  "official": 49363,
  "▁team.": 52330,
  "ାଦେବୀ": 26383,
  "▁thinking": 8496,
  "▁ମାଲକାନାଗିରି": 66450,
  "▁ଲେଖୁଥିବା": 71895,
  "▁୭ବର୍ଷ": 48850,
  "▁ସିକ୍କ": 50569,
  "▁ଗିଲିଯ": 69587,
  "▁Morgant": 51388,
  "▁ସନ୍ଦେହ": 6571,
  "▁Pérez": 50127,
  "▁contradictions": 33327,
  "▁ସ୍ପେନ୍‌": 62912,
  "▁doubts.": 59998,
  "▁ଛାଡ଼ପତ୍ର": 29321,
  "▁ଭସାଣି": 34173,
  "▁ହାଇଟେକ୍": 59971,
  "▁ୱାଇ-ଫାଇ": 57466,
  "ଲ୍‌’": 51111,
  "▁ran": 47516,
  "ଡାକୁ": 54641,
  "▁urban": 11943,
  "trust": 34236,
  "▁racist": 27396,
  "▁କିଲ୍ଲା": 47101,
  "▁ଶ୍ରୀଦେବୀ": 20649,
  "▁Convention,": 15761,
  "▁Diff": 41622,
  "ସ୍ପର୍ଶ": 14417,
  "▁initially": 18735,
  "▁ଓଲିଉଡ୍": 45476,
  "▁ଖୋଲିଦେଲେ": 69740,
  "▁ପାଉଥିଲେ।": 58779,
  "ସେକ୍ସ": 45066,
  "▁Rout": 64191,
  "▁ନୂଆଦିଲ୍ଲୀ": 3836,
  "ସମ": 4888,
  "▁ଅଭିନଯ": 6286,
  "ivity,": 27020,
  "ions": 1442,
  "▁ପଡିବ,": 66031,
  "▁deg": 7121,
  "▁modulation": 38304,
  "▁ଦୃଶ୍ଯରେ": 60998,
  "▁କେତୁ": 70324,
  "କଳେବର": 18353,
  "▁file": 28767,
  "ass.": 36728,
  "▁ନୀତିଶ": 25167,
  "▁ମତଦାତାଙ୍କ": 49833,
  "▁ଭିନ୍ନକ୍ଷମଙ୍କ": 61297,
  "▁ଆତଙ୍କବାଦୀମାନେ": 25118,
  "ଲରେ": 2707,
  "▁ଉପାଯ…": 39695,
  "▁ପିଟିସନ୍‌": 63723,
  "mitted": 26963,
  "▁2015": 12715,
  "▁texts.": 43515,
  "▁ନବକିଶୋର": 53859,
  "▁(Odia": 43395,
  "୩୦ରୁ": 41740,
  "▁ଚଢ଼ାଉ,": 44644,
  "▁ବିଶ୍ୱକ": 5224,
  "▁consciences": 50276,
  "▁133": 62265,
  "▁ଦେଇଛୁ": 19900,
  "▁trail": 44027,
  "▁ଜଣକ": 6018,
  "▁provinces": 46839,
  "81": 61125,
  "▁said,": 4860,
  "▁Wats": 24378,
  "▁credit": 8637,
  "▁September,": 20332,
  "alib": 23378,
  "▁Öcal": 64949,
  "ଆ,": 15806,
  "▁retained": 30740,
  "ବାବୁ": 11312,
  "▁ଗୁଣିଗାରେଡି": 57023,
  "▁ପଡ଼ିଲା": 9456,
  "▁ସେଗୁଡ଼ିକ": 23353,
  "▁Protection": 11144,
  "ging,": 69192,
  "▁considerable": 6867,
  "▁କାହା...": 42906,
  "mbuds": 55303,
  "▁Mauritania": 41950,
  "▁favourable": 12996,
  "▁ଡ୍ଯ": 54630,
  "▁viable.": 63467,
  "cent": 9216,
  "▁ସ୍ୱାର୍ଥକୁ": 37976,
  "ଶହରୁ": 24206,
  "ପାର୍କ": 63057,
  "ଶଯ୍ଯା": 61036,
  "▁କୃଷକ,": 66282,
  "▁ଗଭର୍ଣ୍ଣରଙ୍କ": 66706,
  "▁ଦେଶଭକ୍ତି": 72744,
  "▁ବାହାରିଥିବା": 37048,
  "▁ନାନ": 24633,
  "get": 1731,
  "▁୨୦୧୭-୧୮ରେ": 53181,
  "ଙ୍ଗମ": 25934,
  "ister": 36442,
  "▁ଅକାର": 73108,
  "▁blind": 16487,
  "▁ଯେତେବେଳେ": 5630,
  "ariff": 46855,
  "▁assets,": 52505,
  "pdf": 63008,
  "ଟ୍ଯୁବ": 18377,
  "▁Pakistan": 11284,
  "▁ମେହବୁ": 56403,
  "▁limitations.": 72805,
  "▁Non-": 68729,
  "ତୁରନ୍ତ": 57206,
  "▁ରହସ୍ଯଜନକ": 64023,
  "▁ଡିଜାଇନ୍‌": 48631,
  "far": 24739,
  "▁Herzegovina,": 55772,
  "▁Antwerp": 62415,
  "/20": 33334,
  "▁money.": 13439,
  "▁ବଜ୍ରା": 32482,
  "▁Looking": 30760,
  "ican": 71441,
  "▁ବିଚରା": 41784,
  "▁ଛତ୍ରପୁର,": 58151,
  "▁ଏନଏସ": 37521,
  "▁introductory": 37111,
  "▁nationals,": 49447,
  "▁😀": 64715,
  "▁Catalan": 54165,
  "▁Kiv": 66552,
  "▁problematic.": 58169,
  "▁fashion": 28018,
  "କସନ": 57755,
  "▁ସର୍ବସମ୍ମତି": 60850,
  "▁Pow": 61153,
  "▁ମାମୁଁ": 26361,
  "▁ଝିଅଟିର": 41012,
  "▁ଚଳିଲେ": 73652,
  "▁କୋରାପୁ": 21321,
  "▁ଗାଁରେ": 5731,
  "▁ସ୍ବାଦ": 53829,
  "▁mechanism.": 29912,
  "▁Pre": 2803,
  "▁ବାନା": 39826,
  "▁ନିଖିଳ": 37864,
  "▁ଘ୪ା": 36638,
  "▁20%": 14551,
  "▁ରାଷ୍ଟ୍ରପତିଙ୍କ": 20245,
  "▁ପଡିଥାଏ": 17182,
  "▁ଯୋଡ଼ିବା": 43735,
  "କ୍ଷପ": 53062,
  "▁Page": 22078,
  "▁ରିଲିଫ୍": 24368,
  "▁ସାମ୍ବାଦିକଙ୍...": 42026,
  "itual": 34141,
  "▁ନୃତ୍ଯଶିଳ୍ପୀ": 35557,
  "▁ଲୁହାର": 56505,
  "▁ଗାଙ୍ଗୁ": 37173,
  "▁ଯମଜ": 60320,
  "▁ଅନନ୍ଯ": 11793,
  "▁ରକ୍ଷଣଶୀଳ": 66409,
  "▁କଲା।": 21929,
  "▁ମଣ୍ଡ": 4658,
  "▁ଟୁକୁ": 54315,
  "▁utilised": 54356,
  "▁metro": 71214,
  "▁ଡ୍ରାଇଭିଂ": 21852,
  "▁facility": 21553,
  "▁lif": 3691,
  "sun": 31539,
  "........": 40702,
  "▁evening's": 60547,
  "▁ଚାହୁଁନାହାନ୍ତି": 72372,
  "▁respon": 2044,
  "▁ଅନୁସୂଚୀତ": 62698,
  "▁EU-China": 51820,
  "▁ଦେବୁ": 23125,
  "▁ଗ୍ଭଲି": 36560,
  "▁attempt,": 73271,
  "▁ଠାକୁର,": 68317,
  "▁inequalities,": 59367,
  "▁beh": 2517,
  "ପାଟଣା": 12105,
  "▁proceedings,": 36936,
  "▁ବିସ୍ଫୋରକ": 18153,
  "▁କଂଟା": 66332,
  "▁momentous": 68629,
  "▁ଶୁଖୁଆ": 69052,
  "▁ନିଆଯାଇଥିଲା": 28971,
  "▁works,": 37231,
  "▁କଲ୍ଯାଣ,": 69000,
  "▁ସଂକ୍ରାନ୍ତ": 18588,
  "▁ସ୍କି": 24554,
  "▁ଚେଯାରମ୍ଯାନ": 40228,
  "▁ଦିଖ": 61711,
  "▁ହିଂସ୍ର": 37762,
  "▁ଇଣ୍ଡୋନେସିଆର": 31299,
  "▁ଶ୍ରୀନ": 24153,
  "▁excesses": 50248,
  "▁speeding": 31951,
  "▁ସମ୍ପୁର୍ଣ୍ଣ": 14112,
  "▁ମିଳିପାରେ।": 24266,
  "▁constituent": 28454,
  "ied": 2412,
  "▁movements.": 56722,
  "▁categor": 11968,
  "▁brain": 25568,
  "▁spontane": 47892,
  "▁185": 73249,
  "▁ଆଇଜି": 20271,
  "▁ସେହି…": 74099,
  "▁author": 6342,
  "ୋଧ": 1844,
  "▁ରୋଡ,": 48593,
  "ack": 1881,
  "▁Eurojust,": 67410,
  "▁ପଳା": 33795,
  "▁ନାରାଯଣପୁର": 69749,
  "ଚାମ": 46593,
  "▁watering": 59271,
  "▁ମିଳିନଥିଲା": 47128,
  "▁(ସୌଜନ୍ଯ": 61312,
  "▁gaining": 26231,
  "▁ଭୋକିଲା": 33836,
  "Ţ": 244,
  "rupted": 33038,
  "▁ପାଳନ,": 52766,
  "💙": 970,
  "▁restructuring.": 48947,
  "▁discus": 2515,
  "▁States’": 25416,
  "▁gath": 31512,
  "▁power": 3685,
  "▁ମହିଳାମାନଙ୍କୁ": 18293,
  "▁Iraqi": 16425,
  "▁ବାଙ୍କି": 50025,
  "ୋଦରା": 73321,
  "ଲକ୍ଷ": 5129,
  "ା୨୦୧୮)": 57974,
  "▁amendment.": 16477,
  "q/or/": 60372,
  "▁ଅଭିଯୁକ୍ତଙ୍କୁ": 13062,
  "▁ଦାଉରୁ": 36298,
  "▁ସରଳତା": 70868,
  "▁ନିଆଁ,": 23593,
  "▁behind.": 35435,
  "▁ଆଣ୍ଡ୍ରଏଡ୍": 64633,
  "ର୍ଦ୍ଦ": 50470,
  "▁ପେଟ୍ରୋଲ୍": 40870,
  "▁sake,": 59576,
  "▁reciprocity,": 72493,
  "▁transf": 13223,
  "▁ବାଲ୍ଯ": 19600,
  "▁ଛପା": 9510,
  "▁ଇଷ୍ଟ": 18310,
  "▁ବିଜଯନ": 45046,
  "▁build": 4647,
  "▁happening.": 29733,
  "struct": 35975,
  "ctor": 33285,
  "▁ମାର୍କେଟ୍‌": 53913,
  "enend": 74436,
  "▁mutag": 70458,
  "ସମ୍ପ": 3421,
  "▁House's": 35997,
  "▁ମୃତୁ୍ଯ": 23311,
  "ହସ୍ତୀ": 36716,
  "▁fertil": 36790,
  "ias": 27453,
  "▁ବ୍ଯାପି": 15615,
  "▁passed": 11282,
  "▁ରୋଟ": 27817,
  "▁depart": 12279,
  "eek": 37712,
  "ek,": 70395,
  "▁ଦିନୁ": 67541,
  "▁ପାହାଡ଼ରୁ": 72486,
  "▁ଧୁଳି": 64895,
  "ନ୍ଧି": 4296,
  "▁ଆଗ୍ନ": 42305,
  "▁ଲୋକଟା": 54252,
  "▁କାଂ": 60422,
  "▁Kallas,": 70240,
  "▁ଭକ୍ତମାନଙ୍କ": 50543,
  "▁ଶୋଇଥିଲେ": 74628,
  "▁ଲାଗିଲେ": 17506,
  "ଲଳ": 28538,
  "▁ରୁଣ୍ଡ": 57823,
  "-driven": 47626,
  "▁liberty,": 59075,
  "▁ବୋଧ": 8547,
  "▁ଶ୍ରେଷ୍ଠ": 4338,
  "ିବୀ": 59911,
  "▁exports,": 39700,
  "▁engaging": 30368,
  "▁ୱାରେ": 54662,
  "DER": 42628,
  "▁ଫ୍ଯୁ": 45413,
  "▁detection": 37518,
  "▁cloning": 27593,
  "▁men": 6726,
  "▁ତ୍ୱର": 30090,
  "anche": 45243,
  "▁୧୯୭୩": 56739,
  "ହାନ": 15902,
  "▁ଜିଲ୍ଲାଯ": 57113,
  "▁ସମସ୍ଯା,": 32186,
  "▁ଉଠାଇପାରିବେ": 37044,
  "▁force.": 13377,
  "▁prohibition": 24539,
  "▁ଜମାକାରୀଙ୍କୁ": 49938,
  "▁ମିଳୁ": 7403,
  "▁ଯାଉଥିଲା": 21411,
  "ବେଦନା": 27890,
  "ନିରପେକ୍ଷ": 48018,
  "▁ବଞ୍ଚାଇ": 18081,
  "▁ସ୍ତୁତି": 37076,
  "▁at.": 47928,
  "▁directive,": 9144,
  "▁ବର୍ଣ୍ଣନା": 12073,
  "▁୬ଜଣ": 29933,
  "-ବ୍ର": 62579,
  "▁enlarged": 15703,
  "alg": 44920,
  "▁ହାତାହାତି": 41136,
  "▁Land": 43003,
  "▁ସ୍ଥାନେ": 47012,
  "▁ସ୍ପି": 17867,
  "▁Burund": 29950,
  "ବ୍ରି": 17865,
  "▁ଏବେ…": 48076,
  "-dis": 65114,
  "▁biomass": 36718,
  "▁ଖଲାସ": 38568,
  "▁କରିଥାଆନ୍ତି।": 40417,
  "▁“ଇ": 42214,
  "ତକ": 9778,
  "▁ଆକ୍ଟି": 59101,
  "▁subject.": 13110,
  "▁ମୁଖପାତ୍ର": 11543,
  "▁ବଡବଡ": 58049,
  "ଋଣ": 19570,
  "▁was.": 46028,
  "I": 56,
  "▁Coming": 52608,
  "ovici": 64777,
  "▁set-up": 63934,
  "▁ପମପ": 41327,
  "▁techn": 2990,
  "▁FAO": 39994,
  "▁speeches": 14184,
  "▁ଘ୩ା": 45610,
  "▁ଅମ୍ଳଜାନ": 37763,
  "ଆପଣ": 30522,
  "▁ଲିଖିତ": 9295,
  "▁Jihad": 63645,
  "▁held": 5389,
  "▁actually,": 70754,
  "▁best,": 35161,
  "kward": 54205,
  "▁ପ୍ଲେ": 11220,
  "▁reach": 3640,
  "▁ବରଗଡ଼:": 34202,
  "▁ତାଲିମ୍‌": 43708,
  "▁ଦମ୍ଭୋକ୍ତି": 69859,
  "▁paramilit": 73356,
  "▁୨୦୦୯ରେ": 33214,
  "▁ଶ୍ରଦ୍ଧାଳୁମାନେ": 47733,
  "ଗ୍ନା": 71568,
  "ertain": 2239,
  "▁ପଗ୍ଭ": 74003,
  "▁Morgantini": 73034,
  "▁gender": 9414,
  "▁authoritative": 47435,
  "ଦାତ୍ରୀ": 61883,
  "▁ଶିମିଳି": 28950,
  "▁(୨୦୦": 13258,
  "▁ଖୋଳତାଡ": 39963,
  "▁ଆଦାନ": 26534,
  "▁ବାରି": 8871,
  "▁Ombudsman's": 29260,
  "▁ଡାଳ": 21578,
  "▁ପ୍ରୀତି": 16903,
  "▁ସ୍ନାତକ": 23030,
  "ଗହ": 23492,
  "▁Wijsenb": 46143,
  "ଇଙ୍ଗ": 59652,
  "asse": 28138,
  "ଦୂର": 16141,
  "▁Lithuan": 12531,
  "▁ହୋଇପାରେ…": 74597,
  "▁ମହାପ୍ରବନ୍ଧକ": 46113,
  "କର୍ତ": 47828,
  "▁Nature": 70331,
  "▁innoc": 16741,
  "▁seemed": 22072,
  "▁ମିଥୁନ:": 26879,
  "▁Nobel": 31232,
  "▁eloquently": 65848,
  "▁competitor": 33806,
  "ଦଶା": 51231,
  "▁ହୋଇଥିଲା।": 4134,
  "ଫୋନ": 18692,
  "▁ପାଲଟିଯାଇଛି": 62557,
  "▁ପଦବ": 14833,
  "▁workplace,": 52181,
  "▁ଜାଣିଥିବେ": 34938,
  "ହ,": 47771,
  "କୋହ": 55035,
  "▁concealing": 72087,
  "▁hit": 13900,
  "▁philosoph": 17345,
  "▁committees,": 25759,
  "▁od": 26561,
  "▁ବିଯର": 28820,
  "▁chocolate": 34287,
  "▁time;": 60698,
  "▁vein,": 67959,
  "▁preceded": 35070,
  "▁America's": 62310,
  "ପ୍ରସ୍ତାବ": 62774,
  "ò": 193,
  "▁ଜନ୍ମାଷ୍ଟମୀ": 45148,
  "▁ଏକ୍ସର": 64724,
  "▁am": 1424,
  "▁ଭାଜନ": 74998,
  "▁ଭଣ୍ଡାର": 11819,
  "▁ବିଏମ୍‌": 40249,
  "▁efficient.": 32795,
  "▁ସେଟ୍": 34016,
  "▁ପ୍ରେମରେ": 14182,
  "▁ସୁସ୍ମିତାଙ୍କ": 71856,
  "▁ଚନ୍ଦ୍ର": 3693,
  "ij-W": 42440,
  "▁୧୬.": 55880,
  "▁Barroso,": 15992,
  "ancies": 18467,
  "▁whereby,": 70011,
  "▁କଟାଇ": 63134,
  "▁ଆଲୁମିନିଯମ୍": 69133,
  "▁En": 4065,
  "ଇସା": 43995,
  "▁ଶାସନ": 5836,
  "▁platform": 17672,
  "ଧାରାର": 48323,
  "ୁବନ": 1864,
  "ନିର": 23015,
  "▁agricultural": 4196,
  "▁ସ୍ରାବ": 73407,
  "▶": 806,
  "ୀଙ୍କୁ": 3183,
  "▁resign": 21146,
  "▁ଶିକ୍ଷଣକାର୍ଯ୍ଯ": 36482,
  "▁ହାଟଡ଼ି": 60049,
  "ୁବାବା": 66845,
  "ିନିଖି": 37883,
  "▁(n": 57791,
  "▁noted": 11415,
  "▁ଚାକିରିରେ": 21626,
  "▁ପିଚ": 43009,
  "ଭାଷା": 16874,
  "▁indis": 16924,
  "▁transm": 45898,
  "▁selecting": 50274,
  "▁ଚଳାଉ": 47057,
  "▁ଚରିତ୍ର": 9374,
  "ମିରି": 50027,
  "▁କନ୍ଧମାଳର": 45946,
  "▁ଜଉ": 41246,
  "▁ଅମରେନ୍ଦ୍ର": 52025,
  "▁km": 29103,
  "▁ବଟଲର୍‌": 47309,
  "ାଦୌ": 69628,
  "▁ପୂର୍ବରୁ…": 48854,
  "▁ଗାଧୋଉଥିବା": 63232,
  "OM(": 13175,
  "mer": 34914,
  "▁ପାର୍ଟିକୁ": 38992,
  "KK": 46235,
  "▁accusing": 56387,
  "▁moved": 15374,
  "▁supplement": 9764,
  "ପୁରୁ": 12141,
  "▁ହସ": 7595,
  "ଭ୍‌": 10237,
  "▁ଉପରକୁ": 7309,
  "▁ଶିକ୍ଷଯ": 14019,
  "▁ଆରବ": 19623,
  "▁mid-term": 21000,
  "ାରଙ୍ଗ": 43917,
  "▁ଖାତାରୁ": 48931,
  "▁finally,": 14651,
  "ology": 9170,
  "ATO": 64148,
  "▁morning": 11045,
  "▁ଅଭିବୃଦ୍ଧିରେ": 71281,
  "▁କନ୍ନ": 32360,
  "▁feasible": 21161,
  "▁ଜୁଲାଇରେ": 34664,
  "ପଦା,": 74221,
  "ନ୍ତର": 4560,
  "▁ଲଗ୍ନ": 52767,
  "▁Delhi": 71312,
  "▁ନେଉଥିଲେ।": 52634,
  "▁ଶ୍ରେଯା": 74556,
  "▁ବର୍ଷୀଯା": 17401,
  "▁ଖସିପଡ଼ି": 41373,
  "▁questions,": 18172,
  "▁ଚର୍ଚିତ": 58389,
  "▁paint": 50420,
  "ଚଳରେ": 46239,
  "▁ହୋଇପାରିଛି": 22684,
  "▁ଜେଜେମା": 51676,
  "▁testify": 55712,
  "▁year": 1769,
  "▁Given": 10494,
  "▁୪ଜଣଙ୍କ": 67233,
  "ମ୍ବେ": 14624,
  "▁regret": 5523,
  "▁ନାସ୍ତି": 33799,
  "▁falls": 14722,
  "▁Voggenhuber": 68466,
  "▁ହେବା": 2015,
  "rah": 42092,
  "▁Italy": 10411,
  "▁Cather": 65904,
  "▁Ashton,": 25764,
  "▁ind": 1722,
  "▁fire": 14494,
  "▁ସଂଗ୍ରାମୀ": 17076,
  "▁voters.": 56873,
  "▁ଧରିବାରେ": 40835,
  "▁କଦଳୀକୁ": 69435,
  "ନାହୁଁ।": 71351,
  "/99):": 68076,
  "▁Biswal": 45871,
  "▁affected,": 27523,
  "ପ୍ରସିଦ୍ଧ": 35352,
  "▁ସମସ୍ଯା:": 68606,
  "…]": 36947,
  "▁likely": 9991,
  "▁worries": 30788,
  "▁ବାଲିଅନ୍ତା": 34268,
  "▁cater": 36658,
  "▁ସାଂସଦଙ୍କ": 21351,
  "▁ହେଉଛି…": 29728,
  "▁ରଙ୍ଗୀନ": 38754,
  "▁efficacy": 49690,
  "▁୪ଦିନ": 44249,
  "▁ଭର୍ତ୍ତି": 5784,
  "▁ଟେଷ୍ଟ୍‌": 32947,
  "▁Imb": 53811,
  "▁କାନାଡାକୁ": 68431,
  "ଲାଇକ": 10656,
  "▁Lan": 38369,
  "ଷ୍ଟର୍ସ": 55207,
  "▁ଦାନ୍ତକୁ": 65776,
  "▁ଆମିର": 41878,
  "▁ସୂଚନାଯୋଗ୍ଯ,": 11128,
  "▁ସର୍ତ୍ତ…": 20092,
  "▁ଜଣାଇଲା": 45451,
  "▁ଉଦଘାଟ": 51774,
  "▁ଇଣ୍ଟର୍ନେଟ୍": 29921,
  "।୧୦-": 52849,
  "▁ବାତ୍ଯା": 4307,
  "▁resolved,": 37459,
  "▁overf": 44030,
  "▁announced,": 53733,
  "▁ଅନ୍ଲାଇନ୍": 61083,
  "▁Kong,": 62067,
  "▁Sa": 26855,
  "ବିବି": 36576,
  "▁୧୯୭୮": 44986,
  "▁ଶୁଭମ": 52786,
  "▁school,": 47574,
  "▁ଜନ୍ମଦିନକୁ": 19797,
  "▁exported": 31221,
  "▁ସେଭ": 71834,
  "▁ଓଟିଭି": 16525,
  "▁intent": 32370,
  "▁ମିଳିବ।": 7305,
  "▁ସୁଖମଯ": 33823,
  "▁generally": 10441,
  "▁ନେଉଛି": 12952,
  "▁।’’": 62445,
  "▁beset": 66729,
  "▁ଅନୁକମ୍ପା": 26711,
  "haul": 32840,
  "▁pm": 5735,
  "▁chequ": 40658,
  "though": 3793,
  "▁ନାଳକୁ": 73832,
  "▁ଚତୁର": 19700,
  "▁ମିଳେ": 7798,
  "▁copies": 59571,
  "▁solely": 12688,
  "▁ଆଶ୍ଚଯ୍ଯ": 64002,
  "ସର୍ବ": 72630,
  "▁କାନକୁ": 52991,
  "▁ମଯୂରଭଂଜ": 43438,
  "▁ସହରାଞ୍ଚଳରେ": 33720,
  "ପ୍ପ": 60924,
  "▁levying": 67717,
  "▁ଚେହେରାର": 61840,
  "▁ଇଂଲଣ୍ଡ,": 58356,
  "▁hom": 9601,
  "▁Med": 5721,
  "▁witnessed": 20779,
  "ler,": 24063,
  "ial": 1279,
  "▁ଖରିଦ": 52527,
  "▁ଗୁପ୍‌ଚୁ": 71864,
  "▁ବେକାର": 23571,
  "-water": 65133,
  "▁privileged": 23233,
  "▁ପ୍ରଶ୍ନ।": 64239,
  "▁ବାଇକ୍": 11581,
  "▁ପି.କେ.": 64621,
  "ତ୍...": 30662,
  "▁objection": 20597,
  "▁ଛପି": 39287,
  "▁କ୍ଷଣିକ": 54751,
  "▁ours,": 49120,
  "▁ରହିଅଛି": 37362,
  "▁ନିଯନ୍ତ୍ରଣାଧୀନ": 68125,
  "▁Objective": 16650,
  "▁1950": 46041,
  "iann": 65355,
  "▁ମହତ୍ତ୍ୱପୂର୍ଣ୍ଣ": 35652,
  "▁ପାରାଲି": 74770,
  "▁ପାକିସ୍ତାନରୁ": 68623,
  "▁ବିତାଇ": 43539,
  "▁ଟ୍ରାନ୍ସ": 15160,
  "▁କଏଦ": 29671,
  "▁Neither": 20838,
  "▁ଭାରତ": 1610,
  "▁gallery.": 50889,
  "▁ଇଥାନ": 62473,
  "▁ସେତେବେଳର": 53361,
  "▁ଅହଙ୍କାରୀ": 59773,
  "▁ବିଶ୍ୱଭୂଷଣ": 35155,
  "▁ମେଧାବୃତ୍ତି": 50888,
  "▁(paragraph": 55209,
  "▁୭୪": 21443,
  "ଗୋଚର": 62543,
  "▁string)": 67041,
  "▁ମାଙ୍ଗାନି": 62385,
  "▁ନୈରାଶ୍ଯଜନକ": 52361,
  "ansion": 15903,
  "▁ଖେଳାଯାଉଥିବା": 53674,
  "▁historically": 39223,
  "▁ଉତ୍ପାଦର": 45086,
  "▁ଶାସ": 4116,
  "ଡ଼ରେ": 7147,
  "▁McCreev": 29681,
  "▁କାରବାର,": 50700,
  "▁କୋଠି": 54633,
  "▁କସ୍ତ": 33391,
  "▁ଷ୍ଟ୍ରେ": 22146,
  "▁ମିସାଇଲର": 65211,
  "େଇ": 1313,
  "ependent": 58320,
  "▁(FR)": 7643,
  "▁କଥା।": 16575,
  "▁ଭ୍ରାନ୍ତ": 48554,
  "କାର୍ବ": 66842,
  "hr": 11869,
  "ulated": 9866,
  "▁ରୋକିବାରେ": 28449,
  "▁Poverty": 33275,
  "▁ନେଇଛି।": 17305,
  "▁ପୁଲୱ": 44440,
  "▁ଗୃହ": 4302,
  "▁ଦୁର୍ଦ୍ଦଶା": 22500,
  "▁ସୁକ": 25816,
  "ts.": 44573,
  "▁କଏନ୍‌": 41838,
  "▁bagg": 71815,
  "▁ସ୍ୱଭାବେ": 42510,
  "▁travel": 7029,
  "obile": 22222,
  "(ବ୍ଯୁରୋ)": 44300,
  "ର୍‌ଙ୍କୁ": 32432,
  "atom": 22288,
  "▁amendments:": 54860,
  "▁କ୍ଷତ": 19514,
  "-elect": 30894,
  "▁pupil": 54949,
  "▁କ୍ଯାଡର": 31749,
  "▁Mar": 8646,
  "▁either,": 28275,
  "▁Iv": 53421,
  "▁goods,": 21238,
  "▁reductions,": 73726,
  "oods": 58291,
  "▁planet.": 37240,
  "▁ଅଭିଯୁକ୍ତମାନଙ୍କୁ": 44507,
  "▁ସେ.ମି": 74026,
  "▁placement": 66913,
  "▁Iran,": 21341,
  "▁tox": 18956,
  "ife,": 58929,
  "▁‘yes’": 49848,
  "▁Lin": 60692,
  "▁Dell'Al": 43679,
  "▁କଟିବ,": 54505,
  "lective": 68217,
  "▁ଦୃଢ଼ୋକ୍ତି": 57656,
  "▁rivers": 44703,
  "▁reins": 60498,
  "▁ନୀଳଗିରି:": 51675,
  "▁ଘୋଟି": 66520,
  "▁mentions": 24457,
  "▁ଜନସାଧାରଣଙ୍କୁ": 26763,
  "▁!…": 13289,
  "ତ୍‌ଲି": 21205,
  "▁Giscard": 42401,
  "▁ରକ୍ଷଣା": 71349,
  "▁ଚଉ": 14680,
  "▁guarantees.": 37908,
  "▁ଆଧାରକୁ": 47413,
  "▁emphasise,": 45461,
  "▁ରହିଲେ": 10254,
  "/୦୪": 48241,
  "૽": 540,
  "ଷ୍ଟିଚ୍ଯୁ": 16888,
  "▁Eurojust": 25719,
  "▁ଟ୍ରେଲରରେ": 70983,
  "▁ବଞ୍ଚିଥିବା": 58379,
  "ଲେଇ": 14231,
  "▁ଯାଆନ୍ତି": 22811,
  "▁ମଞ୍ଚରେ": 25831,
  "ହାଟ": 40895,
  "▁applauded": 55332,
  "▁ଏକଦମ": 61412,
  "▁extinction": 49231,
  "▁ଦଲା": 39121,
  "▁ଋଣ": 4820,
  "▁partner.": 33313,
  "▁ହାଉସ୍‌ରେ": 64614,
  "▁expressly": 20993,
  "ପୁରୁଣା": 51827,
  "▁ମିନିମମ୍": 59378,
  "▁ଦିଆଯାଇନାହିଁ": 67279,
  "▁ରତା": 73544,
  "▁rapporteurs.": 33756,
  "▁ସଞ୍ଜ": 8501,
  "UN": 64413,
  "▁stores": 74028,
  "▁ରାମନାଥ": 18504,
  "▁Bu": 41979,
  "ohr": 45106,
  "▁ମହାସଚିବ": 45360,
  "▁System.": 61553,
  "▁Kuhne": 74333,
  "▁ପିଇବେ": 69707,
  "▁ଡେ’": 48872,
  "▁restric": 19593,
  "▁ଜିଅନ୍ତା": 41605,
  "▁States;": 32319,
  "▁(ଆଦି": 26788,
  "▁ତହସିଲଦାରଙ୍କ": 48924,
  "▁ଝାଡ଼ଖଣ୍ଡର": 42568,
  "▁ସିଲିଣ୍ଡର,": 69079,
  "▁ଅଗ୍ନିରେ": 67329,
  "▁ପଠାଇଲେ": 23769,
  "▁non-tariff": 50295,
  "▁ନମୂ": 34045,
  "▁ଛେନା": 30208,
  "▁findings.": 62312,
  "▁ଦ୍ରୁତଗତିରେ": 42942,
  "▁ରାଷ୍ଟ୍ରାଯତ୍ତ": 36757,
  "▁8%": 44265,
  "▁ପର୍ଶ": 30915,
  "▁ମତ୍ସ୍ଯ": 11081,
  "ାସୁ": 22180,
  "▁aspects:": 55485,
  "▁ଜିଲ୍ଳାରେ": 55646,
  "ାତାର": 11497,
  "urable": 43084,
  "W": 70,
  "▁Strategic": 43551,
  "cle": 13187,
  "▁ଧାଡି": 27152,
  "▁ସାଂସଦମାନେ": 49319,
  "▁industry": 4539,
  "▁ମଣ୍ଡଳୀ)": 23800,
  "eness": 26215,
  "▁ତଦନୁ": 49901,
  "▁tragic": 12089,
  "ଏଭଳି": 53983,
  "▁ରୁଷ୍": 67259,
  "▁ଜଗତ୍‌ସିଂହପୁର": 43070,
  "rab": 9692,
  "▁ଯୋଗଦାନ": 13098,
  "▁ମେଘୁଆ": 56162,
  "୧୩,": 63437,
  "▁ରଖାଯିବ।": 56666,
  "▁Virrankoski": 72160,
  "▁Supplementary": 74366,
  "▁ଉପକାରୀ।": 47715,
  "aments": 48545,
  "▁condemning": 22835,
  "▁ଛଅଟି": 44202,
  "▁ଦିଗହରା": 72793,
  "▁considerably.": 44952,
  "▁ଲେଟ": 70305,
  "ରବ": 22483,
  "▁dumped": 59315,
  "▁criterion.": 62840,
  "▁inevitably": 19026,
  "▁record": 7827,
  "▁impair": 52755,
  "▁କବିତ": 23518,
  "▁president.": 73250,
  "▁leave,": 41380,
  "▁irony": 66113,
  ".୭": 15149,
  "▁arrive": 17877,
  "▁toys,": 63509,
  "▁riot": 68897,
  "▁appetite": 73045,
  "ariat": 18545,
  "▁chaired": 31914,
  "▁insist,": 60260,
  "▁(B5-00": 71265,
  "▁importance.": 14309,
  "▁payment.": 58522,
  "▁ଦମକଳବାହିନୀ": 71305,
  "▁ୱାର୍କ": 31482,
  "ellar": 56890,
  "▁Tomlin": 41947,
  "ńsk": 43570,
  "▁ମାରିଦେଲା": 46536,
  "awaited": 56406,
  "▁directorate": 64919,
  "▁କନଷ୍ଟ": 25429,
  "▁reliable,": 54721,
  "▁ବଣମ": 13197,
  "▁ଙ": 41518,
  "▁tonne": 47180,
  "▁aer": 25025,
  "▁Remember": 55574,
  "▁ଡ଼": 9424,
  "▁ବ୍ରାହ୍ମଣ": 13111,
  "▁tendencies": 40532,
  "▁cycle,": 63787,
  "▁ଏମ୍ସର": 48500,
  "▁maps": 53416,
  "▁ଅନୁମୋଦିତ": 26080,
  "▁ଚି": 2199,
  "▁distribution.": 57651,
  "▁ପରିସ୍ଥିତି": 5533,
  "▁ଆପଣାନ୍ତୁ,": 70460,
  "5)": 17619,
  "ଣ୍ଟି": 3997,
  "conf": 45777,
  "▁populism": 66651,
  "▁ମୁଦ୍ରାର": 48142,
  "ରାଦ": 14420,
  "▁emphasise": 7426,
  "ିଆ,": 31169,
  "▁ବେନାମୀ": 49581,
  "▁ଛୁଇଁବା": 27341,
  "▁ଗାଡ଼ିର": 30639,
  "▁seeing": 11760,
  "▁୧୧ରେ": 33441,
  "▁Key": 69642,
  "▁boycott": 40547,
  "▁residence.": 54932,
  "▁abortion.": 51029,
  "▁ପ୍ରଗତ": 71070,
  "▁କୈାଣସି": 13287,
  "▁ERV-O": 29752,
  "65": 46127,
  "▁ଆବୋରି": 65974,
  "▁ଅଇଁଠା": 21616,
  "▁ତଦନ୍ତରେ": 36844,
  "▁armed": 13934,
  "▁school.": 50699,
  "▁reformed.": 57836,
  "ଣ": 578,
  "ଜିବି": 23943,
  "▁ତେଲେ": 13633,
  "▁NACE": 73317,
  "▁ମେଦବହୁଳତା": 24903,
  "▁ଖେଳିବ": 32934,
  "▁ସମାବେଶକୁ": 58126,
  "▁“ମହାଶଯ,": 68831,
  "▁prohibit": 23897,
  "▁excessively": 23662,
  "▁seventh": 34187,
  "ä": 179,
  "ଲେଞ୍ଜ": 10165,
  "▁representations": 37584,
  "▁ଦେଖିଲା,": 53080,
  "▁McMillan-Scott": 68469,
  "s.com": 74031,
  "▁କଟକ(ଓଡ଼ିଶା": 43606,
  "ß": 174,
  "▁ଏଜେନ୍ସି": 17625,
  "▁Oil": 58004,
  "▁ଶ୍ରୀମନ୍ଦିରକୁ": 20549,
  "ାଇବାରୁ": 42556,
  "▁shortages": 42912,
  "▁ପାଣ୍ଡୁ": 67680,
  "▁tempt": 19392,
  "▁situations,": 26757,
  "▁ଏନ୍‌.": 59541,
  "▁ସେମିଫାଇ": 15410,
  "▁ଜିତିବାରେ": 57157,
  "▁tra": 1858,
  "▁Ramb": 73151,
  "▁November.": 24730,
  "resh": 13178,
  "▁ରାଜସ୍ୱ": 8973,
  "▁କଳାକାରମାନେ": 36291,
  "▁ଓଲିଉ": 11959,
  "ମି": 1377,
  "▁ଉତ୍ତେଜନା,": 45948,
  "▁ରହିଛି୤": 72748,
  "▁ଜନବସତି": 41681,
  "▁-୨୦୧୮": 64456,
  "▁ବଂଶୋଦ୍ଭବ": 53793,
  "▁but,": 7437,
  "▁ନେବାରେ": 24298,
  "▁speculation": 23747,
  "▁ଦୃଶ୍ଯ,": 65117,
  "▁ଉର୍ଦ୍ଧ୍ଵ": 39172,
  "▁Alpine": 40139,
  "▁ତେଜପତ୍ର": 41210,
  "▁showed": 16298,
  "ta": 34176,
  "▁freed": 46245,
  "ବ୍ଯବସାଯ": 19870,
  "▁pesticides,": 52852,
  "▁ଲକ୍ଷ୍ମୀନ": 30861,
  "▁ସମାଜ": 4448,
  "ସିଆଲ": 18566,
  "▁ଦେଇଥିଲେ,": 25890,
  "▁nan": 33345,
  "▁undergone": 39847,
  "▁ସଂକ": 3468,
  "▁ସିରିଞ୍ଜ": 57164,
  "ାଯତିରାଜ": 20904,
  "▁Music": 34617,
  "▁educational": 14086,
  "iod": 3658,
  "▁ଟଯୋଟା": 69603,
  "▁ଭଂଜନ": 52243,
  "▁ପାଭଲି": 56654,
  "▁ପ୍ରେସ୍": 26278,
  "▁Danish": 12412,
  "▁athlet": 59640,
  "(ପି.ଟି.)-": 22352,
  "▁ମହାଭାରତର": 49969,
  "▁ନିଦେ୍ର୍ଦଶ": 47896,
  "▁Blair": 20213,
  "▁ଅଙ୍କୁଶ,": 55348,
  "tak": 71793,
  "▁ରାଧେ": 66716,
  "▁cycl": 30970,
  "▁monitored,": 58839,
  "▁ବାହ": 6627,
  "▁Someone": 53135,
  "▁converted": 42345,
  "▁ହୋଇଥି": 71463,
  "▁ପାକି": 3747,
  "▁contribution": 4834,
  "▁ଯଶୋବ": 34276,
  "▁ଅପରେଶନ": 29475,
  "▁କେନ୍ଦ୍ରାପଡ଼ା": 8595,
  "▁ଅରୂପ": 56351,
  "କାରୀମାନଙ୍କୁ": 65363,
  "ପ୍ଟର": 12700,
  "▁ବାଣ୍ଡ": 31622,
  "▁Sen": 20110,
  "▁ଆରମ୍ଭ!": 53262,
  "▁ହାର୍ଦ୍ଦିକ": 22946,
  "▁lacked": 55889,
  "ଡିଆ": 1911,
  "▁{": 31274,
  "ଦକ୍ଷତା": 40129,
  "▁understands": 27087,
  "▁ଟୁର୍ଣ୍ଣାମେଣ୍ଟରେ": 44898,
  "▁non-c": 42838,
  "▁ଆନ୍ତର": 19428,
  "େବଲ": 50476,
  "▁Coelho": 42967,
  "▁ଖ୍ରୀଷ୍ଟ": 10592,
  "▁ଝଗଡ଼ା": 14552,
  "▁ହୁଅ।": 43860,
  "▁perfectly": 11458,
  "▁ପ୍ରତୀଯମାନ": 73244,
  "କିଆ": 10066,
  "entr": 3312,
  "▁demonstrating": 21913,
  "▁simplifies": 66027,
  "▁ନଭେମ୍ୱର": 54499,
  "▁ଦୌଡ଼କୁଦ": 43262,
  "▁କୁକ୍‌": 62771,
  "▁headway": 42548,
  "▁cope": 17815,
  "▁ହଁ…": 64038,
  "▁ବରା": 33684,
  "▁ସମ୍ମିଳନୀର": 33658,
  ":09": 37979,
  "▁lacking.": 42326,
  "▁behind,": 55901,
  "▁believed": 21045,
  "▁prescribed": 37731,
  "▁ଗଦ୍ଯ": 64436,
  "▁୧୯୯୬ରେ": 61745,
  "▁Méndez": 38139,
  "▁destination.": 56524,
  "ପିଛା": 44015,
  "▁ସିକନ୍ଦର": 51013,
  "▁36": 10057,
  "▁ତଣ୍ଟିକଟା": 60873,
  "▁ଖୁଆଡ଼": 39420,
  "ପ୍ରବଣ": 26068,
  "ପ୍ରଦେଶ": 4522,
  "ବାକ୍ଯ": 52568,
  "▁pred": 12684,
  "ରାଜନଗର": 44094,
  "▁Foot": 52916,
  "▁ଘିମିରି": 70994,
  "brid": 31364,
  "▁ଟ୍ୱ": 47515,
  "▁ଗଜପତି": 7275,
  "▁ନେଲେ": 8046,
  "▁ଭୋଟ୍‍": 53304,
  "▁Switzerland.": 55338,
  "▁ନିଃସଙ୍ଗ": 56166,
  "ainted": 48440,
  "▁viewed": 24155,
  "▁Terr": 21005,
  "▁Galicia": 43782,
  "▁Environ": 7278,
  "▁preced": 11548,
  "▁analysed": 31440,
  "▁ସମ୍ବନ୍ଧ": 6041,
  "-food": 35867,
  "▁ହୋଇସାରିଥିବା": 61047,
  "▁suffrage": 47148,
  "▁ARE": 60395,
  "▁ବାନାର୍ଜ": 51528,
  "▁ଥୁ": 30960,
  "▁ଇଲେକ୍ଟ୍ରୋନିକ": 22864,
  "▁Val": 22226,
  "▁ବ୍ଳକ": 25533,
  "▁overcome.": 42764,
  "▁Ay": 41529,
  "▁euros,": 64262,
  "▁ଜୀବନ[ସମ୍ପାଦନା]": 30763,
  "ନରୁ": 39501,
  "▁reclaim": 74522,
  "ubl": 50800,
  "▁ସମୁଦାଯ": 12943,
  "▁ଜରିଆରେ": 5677,
  "▁ଟେକନୋଲୋଜି": 65201,
  "▁ବାହାନା": 33126,
  "▁ସ୍ୱଯଂ": 15329,
  "▁judgments": 26471,
  "▁leader,": 41902,
  "▁ଜେଏମ": 63343,
  "▁ସଙ୍ଗଠନ": 15590,
  "ଡାନ୍ତ": 20417,
  "▁III,": 70210,
  "appro": 14834,
  "▁ଚାଲିଥିଲେ।": 71139,
  "▁tool,": 47985,
  "▁ପିଙ୍ଗ": 67243,
  "ାଗର": 12500,
  "୍ଯରେ": 22690,
  "▁beware": 64167,
  "ified,": 15886,
  "▁parliament,": 31557,
  "▁ହାରିଛନ୍ତି": 33461,
  "▁Fe": 27781,
  "▁ବୁଝାମଣାକୁ": 63751,
  "xem": 9740,
  "-hand": 21513,
  "▁ବାଜେ": 45041,
  "▁ଚରଣେ": 38774,
  "▁ଫଇସଲା": 29793,
  "▁fron": 17408,
  "ୱନ୍ତ": 37934,
  "▁Petersburg": 59862,
  "▁Patriarch": 65547,
  "▁ତରବର": 58765,
  "▁ପ୍ରାଧାନ୍ଯ": 24836,
  "07": 65871,
  "▁ପ୍ରତ୍ଯେଯ": 68624,
  "▁Please": 16070,
  "▁artificial": 19717,
  "▁ଛିଣ୍ଡାଇ": 70175,
  "▁nut": 29208,
  "▁ଫାଉଣ୍ଡେସନ୍": 44888,
  "▁wounded": 68505,
  "▁ris": 3268,
  "▁ଧସ": 29608,
  "▁me": 1382,
  "▁ମାଲିକକୁ": 49043,
  "▁ସ୍ବୀକୃତିପ୍ରାପ୍ତ": 54182,
  "▁ସାଉଣ୍ଡ": 56161,
  "▁ପାସ୍‌ଓ୍ଵାର୍ଡଟି": 29230,
  "ଛକ": 34469,
  "▁verbal": 53318,
  "▁କପିଳାସ": 48135,
  "▁McKenna": 51856,
  "▁ଯାଉଥିଲେ।": 27366,
  "▁ବୋତଲରେ": 27094,
  "rape": 37162,
  "ଫର୍‌": 39584,
  "▁ମାଲିକାନାରେ": 69730,
  "▁ଛାଡିଥିବା": 54885,
  "▁Funds.": 23793,
  "▁echoed": 66115,
  "▁ସଂକ୍ରାନ୍ତୀଯ": 29364,
  "▁Bolog": 49119,
  "▁allies,": 66844,
  "▁ସମାପନ": 35308,
  "▁ପୋଟାସିଯ": 53582,
  "▁shel": 24548,
  "▁କର୍ପୋରେଟ୍": 42564,
  "▁austerity": 27683,
  "▁ନାଲକୋ": 34216,
  "▁ଝାରଖଣ୍ଡ": 50236,
  "▁ଦେଲ": 33535,
  "▁ନିର୍ବା": 2225,
  "▁ଓସ": 68515,
  "ଷ୍ମନ୍ତ": 36296,
  "▁ପଡିଥିବା…": 39178,
  "▁independence": 10082,
  "▁ବସତି": 61715,
  "▁businesses,": 17114,
  "▁ଅଧ୍ଯ": 3357,
  "▁consequently": 20792,
  "▁Review": 32688,
  "▁ନେଗେ": 58025,
  "▁Chakra": 64386,
  "ବର୍ଗ": 12407,
  "rell": 29175,
  "▁Grö": 47474,
  "▁suppress": 42009,
  "▁disadvantaged": 19306,
  "▁ଦେଖିବାର": 29901,
  "▁ହାଇଦ୍ରାବାଦକୁ": 59296,
  "ଥେରାପି": 39583,
  "▁ଟ୍ରେନରେ": 15504,
  "ାଇବାରେ": 39749,
  "▁ନିରବଚ୍ଛିନ୍ନ": 50096,
  "▁ସୋନମ୍‌": 59790,
  "▁outcome,": 39629,
  "▁Stih": 64467,
  "▁ମେଦିନୀ": 74079,
  "▁error,": 52652,
  "▁ରବିବାର,": 52795,
  "▁railway": 12474,
  "▁ଅଛେ": 15101,
  "▁(COM(2001)": 56199,
  "▁ଅଙ୍କୁ": 21502,
  "▁Eurobarometer": 46723,
  "▁ଲୋକମାନଙ୍କ": 9436,
  "ଦଳ": 7971,
  "ଳିର": 29758,
  "▁ଲାଗିରହିଛି": 51038,
  "▁ଆଗତ": 17988,
  "▁କୁଳା": 56481,
  "▁ମା'ଙ୍କ": 73844,
  "▁ଖାନ": 9899,
  "▁ଫୁସ୍‌ଫୁ": 58057,
  "ପ୍ଟରେ": 69986,
  "OLV": 37922,
  "▁କୋଣାର୍କକୁ": 63132,
  "▁ଗୋଗୋଇ": 40409,
  "▁92": 28323,
  "ହରରେ": 33422,
  "▁ଦୁଇଦିନ": 15110,
  "▁2005,": 17507,
  "▁ଛିନତ": 38997,
  "▁accede": 32966,
  "▁imprison": 16992,
  "▁ଆରମ୍ଭ…": 43719,
  "▁ସର୍ବଦା": 10309,
  "▁ପୁନିଆ": 46874,
  "▁confiscation": 60590,
  "▁୦": 5518,
  "▁ଅମନ": 72773,
  "▁ସେଦିନ": 11571,
  "▁naturally,": 29502,
  "▁superst": 58782,
  "▁following": 4211,
  "▁ESA": 63193,
  "▁neck": 68168,
  "▁provoc": 33299,
  "ରହିଥିବା": 45842,
  "▁କାଲିମେଳା": 33610,
  "▁'y": 63334,
  "▁Commission'": 11141,
  "▁ପଡିଆକୁ": 40614,
  "▁ଉପଦେଷ୍ଟା": 24480,
  "▁Italy,": 15254,
  "▁ନଯାଗଡ଼": 11017,
  "▁୬୬": 17627,
  "ଛାତ୍ରୀ": 4455,
  "▁patchwork": 64387,
  "▁divorced": 72119,
  "ମ୍‌କା": 48849,
  "▁ସଞ୍ଜଯ": 11516,
  "▁ଅନ୍ଯମାନେ": 20790,
  "▁ଜାଲିଆତି": 30346,
  "▁ଇସ୍ତ": 7079,
  "ପନ୍ତ": 55387,
  "▁Republic": 6156,
  "ମୁଖ": 3180,
  "▁ଦ୍ୱୀପର": 71131,
  "▁Al": 3637,
  "ଙ୍ଘ": 16166,
  "onou": 23099,
  "▁ଦୋହଲି": 58419,
  "▁ନର୍ସିଙ୍ଗ": 51980,
  "ୋନ୍ନ": 20843,
  "inu": 24146,
  "କରିବା": 30764,
  "▁ପଦଯାତ୍ରାରେ": 40917,
  "ିରଫ": 2641,
  "▁ରେସ୍‌": 47386,
  "▁ଉପôାଦ": 52194,
  "ନାଲି": 28341,
  "▁ଗାରେ": 24149,
  "▁ନୂଆଁଖାଇ": 27594,
  "▁ଓଡ଼ିଶାଲାଇଭର": 56183,
  "▁କେଶ": 5802,
  "▁ରାଜ୍ଯରେ": 3431,
  "▁ଆମ୍ଭକୁ": 28779,
  "▁ମାନିଲେ": 31039,
  "▁determination,": 46912,
  "▁ଛାତ୍ର-": 62802,
  "▁floor,": 35637,
  "ଂସାର": 65378,
  "ski,": 72022,
  "ine,": 14326,
  "▁ଲଳିତ": 26752,
  "▁ରହୁଥିଲା": 42915,
  "-rich": 70267,
  "▁return": 5938,
  "▁ଶାରଦୀଯ": 46921,
  "▁Whitehead": 39640,
  "▁Kan": 2572,
  "▁ଫ୍ଲି": 48250,
  "▁750": 54288,
  "▁production,": 15599,
  "▁କାଂସ": 28345,
  "▁ଓମ୍": 36381,
  "▁ପଦ୍ଧ": 10552,
  "▁Obs": 31906,
  "▁ତୁହି": 34093,
  "▁ଉଜ୍ଜ୍ୱଳ": 21901,
  "▁ଟିମରେ": 30884,
  "▁e-mail": 32260,
  "▁କୁମ୍ବ": 48065,
  "omb": 9335,
  "▁ସମ୍ୱାଦ": 57207,
  "▁U": 1322,
  "▁ଜିନ୍ଦେ": 46048,
  "▁ଉପାଦ": 16699,
  "▁ଗେହିଁ": 56939,
  "▁allowed,": 58750,
  "▁ପାଲଟିଲେ": 60825,
  "▁ଓଭରର": 63448,
  "▁ଦାଉଦଙ୍କ": 38413,
  "▁cyclical": 63510,
  "▁ଅଧିନିଯମ,୨୦୦": 64098,
  "▁invite": 15552,
  "▁ବସେ": 47912,
  "▁ସୈନ୍ଯବାହିନୀ": 57455,
  "▁କିଣାରେ": 65016,
  "▁ପ୍ରଶଂସକଙ୍କ": 31793,
  "ନତି": 46130,
  "▁୧୫୬": 60720,
  "ଜଣ": 3199,
  "▁pace": 18337,
  "▁situation.": 7565,
  "▁ବେଗ": 16953,
  "▁sincerely": 15567,
  "▁ଦୁଇଶହ": 60929,
  "▁Egypt,": 35226,
  "▁ହିନ୍ଦି": 45788,
  "▁protest": 11129,
  "୍ଯାଗ": 10613,
  "▁ଦୀପାବଳୀ": 32944,
  "▁Fä": 56857,
  "▁ପଡୁ": 17108,
  "କୁର": 4667,
  "na": 15833,
  "▁mentioned.": 16024,
  "▁ଆଶ୍ୱ": 14522,
  "ilder": 40648,
  "▁ପ୍ରତିନିଧିମାନଙ୍କ": 66337,
  "▁ସୌମ୍ଯରଂଜନ": 32092,
  "▁Lehne": 34107,
  "▁ଯୋଡ଼ି": 9853,
  "▁୧୫ଦିନରେ": 34874,
  "▁ପାରଳାଖେମୁଣ୍ଡି": 17911,
  "▁ହକିରେ": 54073,
  "▁ସ୍ୱାଇନ୍‌": 60333,
  "ଧାସ": 10960,
  "▁apparently": 18745,
  "▁around": 5612,
  "▁Maur": 23488,
  "▁ଦେଖିଲେ": 8468,
  "▁Munich": 42585,
  "▁attend.": 70526,
  "▁ବ୍ରେନ୍": 33668,
  "▁ଟ୍ରେଡ": 63371,
  "▁ଆଧିପ": 38186,
  "ସ୍ତୁ": 5355,
  "▁\"ଆହ୍ଵାନ": 46198,
  "ଦ୍ଵୀପ": 68325,
  "▁interface": 74751,
  "▁ପଡ଼ୋଶୀ": 18112,
  "▁ଲୁଟେର": 48519,
  "ଜିଟ୍": 69250,
  "▁targets,": 28655,
  "▁options.": 41475,
  "▁guide": 21506,
  "▁ବିଷଯବସ୍ତୁକୁ": 56982,
  "▁ସମୁଖୀନ": 33458,
  "/୨୯": 67164,
  "▁ଟାଇଟଲ୍‌": 47597,
  "▁benefits.": 27753,
  "esign": 28790,
  "ିପାରନ୍ତି": 22559,
  "▁ଏଜୁକେ": 40879,
  "▁ourselves": 5917,
  "▁error.": 45839,
  "▁deep-sea": 63826,
  "▁Fish": 10120,
  "▁over,": 30623,
  "▁107": 67587,
  "▁ଲୋକମାନଙ୍କର": 17791,
  "▁interests": 4327,
  "▁ଆକାଶରୁ": 17640,
  "Ch": 31804,
  "▁ପୋଥି": 38089,
  "▁elements,": 35066,
  "▁Pos": 17656,
  "▁ନବକଳେବର": 19094,
  "▁lingu": 18176,
  "▁horse": 32867,
  "▁Länder": 61673,
  "▁ମା’ଙ୍କୁ": 23615,
  "▁ଫୁଲା": 61976,
  "▁ବଙ୍କା": 49857,
  "▁ତୁହିନ": 73917,
  "▁ଗର୍ଗ": 48222,
  "▁order": 2304,
  "ାର୍ଟ": 2892,
  "▁ଅସମ୍ଭ": 14584,
  "auer": 35879,
  "▁ମାନ": 2093,
  "▁lifted": 37033,
  "▁କରେଇ": 38308,
  "▁ପ୍ରାକ୍ଟିକାଲ": 55999,
  "💕": 966,
  "▁ନିତିଦିନିଆ": 36226,
  "▁Why,": 39849,
  "▁dynamic,": 54349,
  "▁fl": 4111,
  "▁Domin": 72713,
  "ଆନ୍ତି।": 11183,
  "▁ଆଠମଲ୍ଲିକ": 21309,
  "▁reintegration": 36433,
  "▁ସାପ,": 38766,
  "▁ଗଣଦୌ": 72766,
  "ability,": 18408,
  "▁controls,": 28925,
  "▁Implement": 31095,
  "▁‘ଡ": 36318,
  "▁calculated": 31014,
  "▁disaster.": 22161,
  "▁ଭୁଜ": 58768,
  "▁ରଖିଛନ୍ତି,": 67265,
  "▁Regulatory": 74268,
  "▁Europe'": 19021,
  "▁ମାତି": 23526,
  "ପୋରେ": 12212,
  "anim": 7208,
  "ଇଣ୍ଡି": 18381,
  "▁ବାର୍ଥ": 63016,
  "▁dang": 4998,
  "▁୨୦ରୁ": 16922,
  "ନୀ": 1712,
  "til": 4848,
  "▁breed": 22438,
  "▁ପୋଡ଼ା": 35479,
  "▁ପେଟ୍ରୋଲିଯମ୍‌": 53541,
  "▁ବିକିବାକୁ": 57143,
  "▁ଗ୍ଯା": 6887,
  "▁ପ୍ରସଙ୍ଗ": 3600,
  "-୦୭": 50852,
  "▁କାନା": 20713,
  "▁ଟ୍ରିବ୍ଯୁ": 17175,
  "ହାସିକ": 9675,
  "lad": 20886,
  "କଳ୍ପ": 28566,
  "▁working.": 30990,
  "▁ପ୍ରୋଟିନ୍": 48242,
  "▁ଫେସ୍‌": 71892,
  "▁କୋମାରେ": 48067,
  "କାରଣ୍ଯ": 65920,
  "▁ଭାବୁଛନ୍ତି": 29272,
  "▁ଯେଲୋ": 27021,
  "age": 1771,
  "୍ରୀଯ": 4431,
  "▁ଓଡ଼ିଆରେ": 15616,
  "ଫୋର୍ସ": 37147,
  "▁ନିଷ୍କ୍ରିଯ": 29559,
  "heart": 14995,
  "▁ବଡ଼": 3045,
  "▁Authority,": 38693,
  "▁ମୁକ୍ତାକାଶ": 57938,
  "▁coloss": 68597,
  "▁priest": 74067,
  "▁ବୁଢ଼ା": 26355,
  "ল": 501,
  "▁ପଞ୍ଜ": 6782,
  "🏽": 946,
  "(ଆ": 16942,
  "▁କିପରି…": 29349,
  "▁ଗଢିବ": 61298,
  "▁it;": 32017,
  "▁Bonde": 48144,
  "▁cases,": 10790,
  "▁reward": 23195,
  "▁performing": 32902,
  "▁ବଞ୍ଚାଇଲେ": 54076,
  "isch": 13042,
  "▁Qual": 34377,
  "▁ଡ୍ରଇଂ": 66022,
  "▁neighbour.": 70089,
  "▁Christ": 13265,
  "▁supplies,": 44756,
  "▁ସୁର": 2549,
  "▁ଆଜ୍‌": 46006,
  "▁injustices": 62363,
  "ପ୍ରିଯ": 6706,
  "▁ସମ୍ମାନର": 24725,
  "▁ଆମ୍ବାସା": 65517,
  "▁ମହାନଦୀକୁ": 24535,
  "▁nonsensical": 66738,
  "୨,": 15692,
  "▁Dum": 44823,
  "▁ମହାରଥୀ,": 71194,
  "▁ଏନ୍‌ଜିଓ": 72410,
  "ଖଲ": 6268,
  "▁wholeheart": 16709,
  "▁ଆସିଯାଏ": 74997,
  "„": 769,
  "▁demagog": 41234,
  "▁କହିବାନୁସାରେ": 21384,
  "【": 839,
  "▁‘ବାହୁବ": 28000,
  "airo": 29358,
  "▁ଅନ୍ଧବିଶ୍ୱାସ": 26597,
  "ସଂସ୍ଥା": 38528,
  "▁ହୋଲ": 39750,
  "ଅନ୍": 47501,
  "▁ଗୌରୀଶଙ୍କର": 65816,
  "▁ର‍୍ଯାଙ୍କ": 70941,
  "▁policemen": 73026,
  "▁ଅଧିକାରୀମାନଙ୍କୁ": 33758,
  "ଏସ୍‌ପି)": 74300,
  "▁occas": 6604,
  "▁ମାଇକ୍ରୋସ": 41125,
  "ν": 327,
  "ସେମି": 74547,
  "▁ହୋଇଥିଲା,": 24791,
  "▁ମଣିମାଳା": 62834,
  "ାଦ୍‌": 49430,
  "▁competitors,": 66752,
  "▁ଚିଟ୍": 48080,
  "▁(3)": 72227,
  "🧜": 1011,
  "ାର୍ମିକ": 10605,
  "▁spouses": 43414,
  "▁ଌ": 58464,
  "▁Wednesday,": 37837,
  "▁ସପନ": 35899,
  "ମାତ୍ର": 8824,
  "▁place": 2650,
  "▁estimated": 16260,
  "୍‌,": 17570,
  "▁ଥିବେ।": 57813,
  "▁ଶ୍ରୀରାମ": 15959,
  "▁speaking,": 17862,
  "▁punishing": 48513,
  "▁locked": 51545,
  "▁Communities": 21542,
  "▁ଚୋ": 4363,
  "fast": 36372,
  "▁‘ଆଦର୍ଶ": 58563,
  "▁technological": 10611,
  "▁lud": 55396,
  "▁Charter.": 42036,
  "▁agro": 54625,
  "▁ମେମୁ": 65943,
  "ଧାନରେ": 10318,
  "▁ପରବର୍ତ୍ତୀ": 2385,
  "▁failed": 9193,
  "▁NGOs,": 27306,
  "▁ସେବାରୁ": 56916,
  "-C": 12432,
  "▁ବାଯୁସେନା": 26550,
  "▁ଦେଖାଇ": 6805,
  "ବସ୍ତୁକୁ": 25190,
  "▁୧ମ": 49563,
  "▁relaxed": 64100,
  "ersonnel": 37678,
  "gap": 59649,
  "▁motivation": 39413,
  "▁embra": 36613,
  "▁କେନ୍ଦ୍ରିତ": 61939,
  "▁ସ୍ଥାପତ୍ଯ": 33789,
  "▁କାଙ୍ଗ": 58272,
  "▁ମିଳିଥାଏ?": 51951,
  "ସ୍ୱାଧୀନ": 72469,
  "ling": 4645,
  "▁ମୋରମ": 68619,
  "SE": 6861,
  "▁ଫସ୍‌": 73564,
  "୍ରୋର": 60138,
  "▁ଆଖିଦୃ": 39536,
  "▁proposal)": 63908,
  "▁F": 1414,
  "ସ୍ତୁକ": 21338,
  "ପାରିବେନି": 60463,
  "▁Saint": 52250,
  "▁ମାତ୍ରକେ": 62800,
  "▁ବିଙ୍କ": 74455,
  "▁fulfilled.": 39491,
  "▁define": 11389,
  "-keeping": 39192,
  "▁ପ୍ରେମୀଯୁଗଳଙ୍କ": 72539,
  "ଗୁନିଆ": 26389,
  "▁ଊର୍ଦ୍ଧ୍ଵ": 50573,
  "▁Traut": 65786,
  "▁examination": 18425,
  "oems": 60127,
  "ୁଲୁ": 18853,
  "place": 14935,
  "▁solutions.": 18503,
  "▁ଶିରୋ": 40804,
  "▁ଅର୍ଥଅନୁମୋଦନ": 57593,
  "▁unloading": 69965,
  "▁effectively": 7894,
  "▁incorporating": 26019,
  "▁deregulated": 74764,
  "ଚକ": 10543,
  "▁ଘୁଂଚ": 51500,
  "▁ହୁଅନ୍ତି।": 30736,
  "aly": 4407,
  "▁କ୍ଷୀ": 51594,
  "▁restoration": 27437,
  "▁ସ୍ମାର୍ଟଫୋନ୍‌": 17680,
  "▁confidence-building": 59756,
  "ନେବ": 64418,
  "▁ବରଖାସ୍ତ": 59246,
  "▁ଉକô": 29638,
  "▁28th,": 50078,
  "▁batteries": 45009,
  "▁ବେହେରା)-": 66323,
  "▁ଦୋଳି": 39876,
  "▁ଗୋଲକ": 26040,
  "▁Laek": 21569,
  "▁ଛାଉଣୀ": 66746,
  "▁ୱେବସାଇଟ୍": 15536,
  "▁ମାଲ୍‌": 43397,
  "▁ଲଲ": 53819,
  "▁inter-regional": 73649,
  "▁ଚାଷର": 52937,
  "▁adopt": 2271,
  "▁Issues": 56420,
  "▁increasingly": 7371,
  "utical": 16674,
  "▁ପୁଅ/ଏ.ରାଉତ)": 62882,
  "▁credible,": 48633,
  "▁brunt": 63071,
  "▁rooted": 35097,
  "▁inser": 50371,
  "▁ଭେଙ୍କଯା": 70191,
  "▁ପରିଚଯକୁ": 70444,
  "▁requesting": 25579,
  "₩": 783,
  "ney": 35686,
  "▁ପଠାଇବୁ": 48365,
  "▁ଜାଣିପାରିବେ": 22110,
  "▁legislating": 52281,
  "▁Cash": 33482,
  "ପାଶ୍ୱର୍ରୁ": 59392,
  "ଖରେ": 2375,
  "▁wilder": 60378,
  "▁wars.": 61722,
  "▁Italian,": 65737,
  "▁ivory": 71403,
  "▁ଟାଇଟଲ": 26500,
  "▁tabled,": 30810,
  "▁କପୁର।": 68709,
  "▁public,": 17361,
  "▁compensation": 10741,
  "ାଣିତ": 17779,
  "orship": 28992,
  "ध": 450,
  "▁ପରୀକ୍ଷା,": 30307,
  "▁stations.": 44009,
  "ଲାଣ": 7231,
  "▁ବୁରା": 60379,
  "▁unfinished": 74885,
  "▁ଏମ୍": 8510,
  "▁କଲେ...": 39056,
  "▁20.": 48563,
  "▁କର୍ତ୍ତୃପକ୍ଷ": 8288,
  "▁ବିଜ": 1411,
  "ଟିନ୍": 4623,
  "@gmail.com": 28854,
  "ପିତା": 25292,
  "▁୫:": 44024,
  "ule": 4071,
  "▁ଦେଖୁ": 13655,
  "▁ଦଯାଲ": 72438,
  "ପ୍ଲେ": 15194,
  "▁ସ୍ନ": 24640,
  "ନୀଳ": 50944,
  "▁କାଠୁଆ": 52311,
  "-part": 68676,
  "▁ଆସ୍ଥାନ": 61897,
  "▁ଆରାଧ୍ଯ": 45586,
  "▁(ଏସ": 46386,
  "▁ପଲିଟିକ୍ସ,": 51491,
  "ରାଜ,": 43945,
  "▁Countr": 26541,
  "▁fleet.": 46808,
  "▁ବାଂଲା": 71093,
  "▁complementary": 23284,
  "ଥିଲା୤": 71096,
  "▁କ୍ଷେତ୍ରକୁ": 25498,
  "▁ସାମ୍ରାଜ୍ଯ": 20594,
  "▁brutally": 47074,
  "▁ଆକଟ": 72783,
  "▁ଖେଳକୁଦ": 59488,
  "▁ହୃଦଘାତର": 58398,
  "▁ଲୀଳା": 29365,
  "▁wonders": 61341,
  "▁measures.": 9227,
  "▁withdrew": 53426,
  "▁ଜୀବିତ": 17538,
  "ହିବା": 39740,
  "▁return.": 40446,
  "▁ଗୁହାଳ": 45488,
  "▁ଅଘଟ": 11317,
  "▁penalty,": 31012,
  "▁Blott": 57880,
  "▁interval": 67908,
  "▁ଆଠଗଡ": 44874,
  "▁ପ୍ରଭାତ": 13502,
  "▁ଘଉଡ": 48399,
  "«": 131,
  "▁ହୋଇଛି:…": 58290,
  "▁infringed": 59061,
  "▁କରିଦେଇଥିଲେ": 24773,
  "▁ସାଆନ୍ତେ": 57550,
  "▁ହୁଏ।": 13473,
  "▁ଓରଫ": 19176,
  "▁rights;": 42306,
  "▁ଅଧ୍ଯାପିକା": 40871,
  "▁ideas": 7964,
  "▁କ୍ରମାଙ୍କ": 53101,
  "▁ହୋଇପାରିନାହିଁ।": 51959,
  "▁ଓଡ଼ିଶାକୁ": 13136,
  "apped": 46073,
  "▁definitions": 25036,
  "▁ବସୁଧା": 74285,
  "▁ଶବକୁ": 18982,
  "▁ସମ୍ପାଦନା": 5626,
  "-se": 15197,
  "▁You": 4247,
  "▁କନ୍ଧ": 9044,
  "▁ଫାଶରେ": 53693,
  "▁statement": 5783,
  "▁ଲାକ୍ରା": 38661,
  "▁ନୀତି": 3977,
  "▁ମନ୍ତବ୍ଯକୁ": 31090,
  "▁ଉଦଯଗିରି": 38248,
  "▁ଲଟେ": 37506,
  "▁prestigious": 68461,
  "ପରୁ": 72628,
  "ଦଣ୍ଡରେ": 63567,
  "▁ଦିଗ": 3924,
  "୧%": 65884,
  "▁ଦୂରର": 37950,
  "▁Count": 58950,
  "ଶରୁ": 62718,
  "▁ମାଇଲଖୁଣ୍ଟ": 70227,
  "▁୧୪୬": 48870,
  "▁56": 27114,
  "▁ଆପାର୍ଟମେଣ୍ଟ": 55972,
  "ere": 1293,
  "▁confess": 45541,
  "▁ଡୁ": 16795,
  "ଧିଷ୍ଠ": 20491,
  "ୁଲ୍": 38714,
  "▁ଋଷଭ": 49510,
  "▁prisons,": 59543,
  "▁secrecy.": 72990,
  "▁ନାକରେ": 54246,
  "ଡବ": 13728,
  "▁ସଂପର୍କିତ": 17531,
  "ʃ": 272,
  "▁'E": 28866,
  "▁ଇଂଗ": 67533,
  "▁ପ୍ରତ୍ନତା": 69432,
  "▁କାହିିଁକି": 59885,
  "▁doll": 18251,
  "▁arena": 47783,
  "ଲେ": 1217,
  "ୋର୍‌ରେ": 43444,
  "▁ଗାତରେ": 62367,
  "ସତ୍ଯ": 31840,
  "▁Kathan": 35958,
  "▁independent,": 36147,
  "▁ଗାଇଲେ,": 24049,
  "▁merely": 8265,
  "ু": 509,
  "ଠା": 3122,
  "▁fil": 12875,
  "▁paid": 7166,
  "▁ଜେନେରାଲ": 21873,
  "ଭ୍ଯାସ": 24566,
  "▁indulge": 58654,
  "▁200": 2219,
  "▁-୨୦୧୯": 45520,
  "▁ସିମକାର୍ଡ": 67082,
  "/ଏସଟି": 74895,
  "ଲାନ୍ସ": 10899,
  "▁provider": 40826,
  "▁volunteers": 51370,
  "▁Fr": 4842,
  "▁Bur": 9497,
  "▁run-up": 27028,
  "si": 1558,
  "▁ମାଜିଷ୍ଟ୍ରେଟ୍": 39018,
  "▁Haard": 37674,
  "▁ଫେରିଛି": 49165,
  "ଲେଖ": 5208,
  "▁ଘେରରେ": 11328,
  "▁ଫଲୋ": 26432,
  "▁ନିମନ୍ତ୍ରଣ": 10472,
  "phal": 52426,
  "ଆରମ୍ଭ": 62236,
  "▁reflects": 13956,
  "▁‌‌ଖ‌ଡ଼୍‌": 57283,
  "ore": 1249,
  "▁democratically": 19152,
  "▁ଗବେଷକ": 19248,
  "▁techniques.": 69833,
  "▁Europe!": 59430,
  "▁introduction.": 69014,
  "▁ସ୍ୱରକୁ": 72707,
  "▁ରେଡ଼କ୍ରସ୍": 46117,
  "": 914,
  "ଦାରି": 32409,
  "▁disappointing": 29080,
  "ଳନର": 59657,
  "uman": 1998,
  "▁Related": 25366,
  "ପ୍ରିତ": 65033,
  "ାରାଜ": 56663,
  "▁elected": 8807,
  "▁୧୯୩୬": 37443,
  "▁sympathetic": 43880,
  "▁ଶିବଙ୍କର": 56912,
  "▁ଇଣ୍ଡିଗୋ": 36491,
  "▁ବିଗୁ": 50320,
  "▁ସୋସାଇଟିର": 69116,
  "▁corporations": 41667,
  "▁Czechs": 68327,
  "▁ହ୍ଯାଣ୍ଡ": 25709,
  "▁ଭୂମିରେ": 32001,
  "▁Emission": 44194,
  "▁ସଂଯମ": 62166,
  "୍ଦିକ": 27565,
  "▁likewise.": 62950,
  "ଷିକ୍ତ": 67323,
  "▁ଭୁବନେଶ୍ୱର": 1963,
  "▁ଓଡ଼ିଆ,": 35044,
  "ଣ୍ଡରରେ": 40170,
  "▁unit,": 62042,
  "▁ହର୍ମ": 54609,
  "▁Head": 9955,
  "▁୮ବର୍ଷର": 52934,
  "▁ladies": 2970,
  "▁Exclusion": 64960,
  "▁ରାମଦେବଙ୍କ": 47748,
  "▁ପିକ୍‌ନିକ୍‌": 70222,
  "▁Floren": 21122,
  "▁ଫେଷ୍ଟି": 22341,
  "ର୍ଷୁ": 67217,
  "▁ହରେକୃଷ୍ଣ": 31834,
  "▁ଧୁମ୍‌": 44894,
  "▁mean,": 33556,
  "▁ଲେନ୍‌": 62856,
  "▁ଏକ…": 65022,
  "▁transformation": 27695,
  "▁ତିଆରି": 3733,
  "▁ପାସେ": 34307,
  "▁ଆଇପିଏସ୍": 43146,
  "▁redundanc": 52164,
  "▁ସମର୍ଥନରେ": 34264,
  "▁privatis": 35486,
  "▁ବୃଦ୍ଧିକୁ": 25821,
  "▁relevant,": 58344,
  "cient": 17459,
  "ଅାରେ": 68140,
  "▁ନର୍ସିଂହ": 41217,
  "▁Anti-F": 60842,
  "▁Pinheiro": 61857,
  "ଯୁବତୀଙ୍କ": 54140,
  "▁pharmac": 50099,
  "▁ଭୋଗରାଇ": 33510,
  "▁Art": 72297,
  "▁ନୂଆପଡ଼ା:ବୈଷ୍ଣୋଦେବୀ": 43373,
  "▁need": 1542,
  "▁triumph": 37413,
  "▁ଡାଉନ୍‌": 29433,
  "▁ନର୍ସିଂହୋ": 47494,
  "▁Italian": 8030,
  "▁insecurity": 22188,
  "rafulla": 69231,
  "▁ସ୍ୱାସ୍ଥ୍ଯକୁ": 46517,
  "▁ପାରିଥିଲା।": 71587,
  "▁mean?": 49151,
  "▁ଗୋପି": 58271,
  "▁ସମ୍ପାଦନା)": 7980,
  "▁ଆଲଜେ": 67995,
  "▁ଜଣଙ୍କ": 5298,
  "▁schem": 7311,
  "▁ସ୍ନାଯୁ": 32915,
  "▁recognised,": 42228,
  "ଅଁଳା": 66383,
  "▁୧.୭୫": 70099,
  "▁କୃତକାର୍ଯ୍ଯ": 39006,
  "▁ପୂର": 19221,
  "ialogue": 4037,
  "▁inequ": 12508,
  "▁urging": 27756,
  "▁ଜିଲ୍ଲାପରିଷଦ": 40667,
  "▁3%": 24247,
  "▁want": 2087,
  "ଥିବେ,": 31999,
  "r": 97,
  "▁ୱାନ୍": 33410,
  "lyss": 65587,
  "ୋଗ୍ରାମ": 18323,
  "ସ୍କାର": 4161,
  "▁ସ୍ଥା": 6056,
  "▁ପନ୍ଥ": 46599,
  "▁ଲିଭ୍‌": 59227,
  "egr": 3310,
  "/2001": 17267,
  "▁କରୁଣାକର": 65817,
  "TML": 42579,
  "▁Alan": 70053,
  "▁recreational": 46119,
  "▁ତୋରାଣି": 68743,
  "▁(ଅଧିବର୍ଷ": 74402,
  "▁ଶୁଭର": 11631,
  ".୦୪": 40529,
  "▁ପ୍ରଭାବ:": 20627,
  "▁Members": 3236,
  ".୭୦": 71668,
  "▁finished,": 72054,
  "▁ତିଆରିକଲେ": 69883,
  "▁inclusion.": 45587,
  "▁ଲଢୁଆ": 41192,
  "▁4,": 11982,
  "ବିଶେଷ": 13534,
  "▁ବେଙ୍ଗଲ": 66110,
  "ras": 45026,
  "ernal": 41986,
  "▁ପଇସାକୁ": 71999,
  "▁କୁହାଯାଇଥାଏ।": 34733,
  "▁Tourism": 20380,
  "▁ଅପର": 11070,
  "▁ସୁଧାରିବାକୁ": 59074,
  "▁ଜିମା": 37028,
  "▁include": 5021,
  "▁ଲକ୍ଷଣ": 7331,
  "▁କୁଶଳୀ": 42356,
  "▁112": 56105,
  "▁୨୯": 6847,
  "▁influenz": 35215,
  "ବନ୍ଧକ": 41935,
  "hag": 9290,
  "▁lie.": 55947,
  "▁ସନ୍‌ର": 58469,
  "▁Cohn-Bendit,": 52690,
  "▁ମାଫିଆମାନେ": 59337,
  "utro": 68163,
  "▁ପକାନ୍ତୁ।": 46093,
  "comes": 74126,
  "▁translation,": 71295,
  "ପଦାରେ": 71169,
  "▁I,": 11149,
  "▁ମୁକ୍ତି…": 51793,
  "▁କୁଳମଣି": 53537,
  "ତ୍ରେ": 10015,
  "▁ପ୍ରିନ୍ସ": 31641,
  "▁ମାଛକୁ": 46920,
  "▁ଫାଇଲ": 8533,
  "▁micro-enterprises": 67775,
  "▁ଅଭିଯୋଗକୁ": 17437,
  "▁ଘନେଇ": 59679,
  "ener": 18669,
  "▁ସାମ୍ନାରେ": 8916,
  "ିରୀ": 36738,
  "▁ଜିନପିଙ୍ଗ": 74325,
  "▁ଦେଖାଉ": 29613,
  "ଗାର୍ଡ": 29300,
  "▁ଯାଞ୍ଚ": 8083,
  "▁view": 2327,
  "▁ଘଉ": 25521,
  "▁ସଭାନେତ୍ରୀ": 27810,
  "rend": 9114,
  "▁commend": 13578,
  "▁excell": 4646,
  "ମନସ୍କ": 47163,
  "opard": 13910,
  "▁ପ୍ରତିକ୍ରିଯାଶୀଳ": 73745,
  "▁ଜଯ": 3950,
  "▁ଏସଏମସିର": 73409,
  "୍ଯ,": 42691,
  "▁ଆଫେଯାର": 53618,
  "▁କାନୁନ": 30745,
  "▁ସଡ": 46600,
  "▁bio-": 72465,
  "▁Deutsch": 55240,
  "▁noon.": 15017,
  "▁ହୋଇପାରିବେ": 21136,
  "▁systematically": 19453,
  "▁ଶାବ": 36383,
  "▁କତ୍ତୃପକ୍ଷ": 65861,
  "▁ଚାଟ୍": 69624,
  "ିତ୍ରୀ": 10875,
  "▁ସେକେଣ୍ଡର": 49648,
  "▁Miguel": 54785,
  "▁overcrow": 66156,
  "ାଣ,": 70721,
  "▁ଟି": 2072,
  "▁ଅଚଂ": 30646,
  "▁possibly": 12450,
  "▁ଗୀତକୁ": 32237,
  "ଟିଏଫ୍‌": 32729,
  "▁simultaneously": 30949,
  "-west": 47852,
  "​‌": 66492,
  "▁ମରଣ": 16524,
  "▁ଶ୍ଯାମ": 18052,
  "ପୀଠରେ": 33562,
  "▁ଜଙ୍ଘ": 55612,
  "ଟୁଳ": 65708,
  "ୀରିକ": 7349,
  "▁ଜନୈ": 24530,
  "▁enterprises,": 17513,
  "▁ମୋଟ": 6435,
  "▁business.": 17237,
  "▁Stra": 50642,
  "▁indicated.": 64556,
  "▁Kun": 65040,
  "▁ଆପ୍": 10794,
  "▁ତକ୍ର": 46607,
  "▁ଅଲଟ୍ରାସ": 59255,
  "▁କୁନିଝିଅ": 74687,
  "▁deficiencies": 29792,
  "ବିର": 15143,
  "▁ଏସସି": 38382,
  "Ā": 207,
  "▁enrich": 22169,
  "▁ଧର୍ମୀଯ": 50667,
  "▁କରିଛୁ।": 39588,
  "▁unhind": 72095,
  "ଦଯ": 21837,
  "।୯-": 41661,
  "▁ଅସୁସ୍ଥତା": 24500,
  "▁convened": 51634,
  "▁ଭିତରକାଠ": 70151,
  "ivered": 18088,
  "▁occupies": 61514,
  "ation,": 2187,
  "▁ଭର୍ତୃହରି": 60795,
  "▁ଚାଲିଛି।": 11797,
  "▁ଚଢ଼ଉ": 18162,
  "▁minimise": 30317,
  "▁children's": 20878,
  "ଥୁଲି": 70536,
  "▁ବାର୍ତ୍ତା": 10800,
  "▁else,": 20865,
  "଀": 543,
  "ରାଜ୍ଯର": 38239,
  "▁12.00": 40967,
  "କ୍ଟ୍ରି": 18410,
  "▁ସର୍ଜିକାଲ": 20693,
  "▁ଉର୍ଦ୍ଧ": 10006,
  "▁Husse": 20912,
  "▁ପଡ଼ିଲା;": 69041,
  "▁ଯାତ୍ରାରେ": 18479,
  "▁ଜିଣିଲେ": 73408,
  "▁olig": 42082,
  "▁pend": 66499,
  "▁can,": 14643,
  "▁ଲିଭିଙ୍ଗ": 21857,
  "▁extre": 3672,
  "▁ଲାଲ୍": 22640,
  "ଡିଲା": 18795,
  "▁combust": 44503,
  "▁discrimin": 5593,
  "▁ଗରିବ": 7689,
  "▁ଦମଦାର": 23244,
  "▁ହସ୍ତୀ,": 58104,
  "oil": 31657,
  "▁ପ୍ରଚେଷ୍ଟାରେ": 63546,
  "▁ନିପାହ": 71328,
  "ରୁକୁ": 63030,
  "▁legalisation": 73655,
  "▁ହବ୍": 56451,
  "▁ରୁହନ୍ତି": 20970,
  "▁occasional": 57168,
  "uly": 4292,
  "▁ଆକାଉଣ୍ଟାଣ୍ଟ": 71388,
  "▁stat": 4352,
  "&#": 43906,
  "▁ସମ୍ବର": 69969,
  "▁ପଡୋଶୀଙ୍କ": 69314,
  "▁ଅରୁଆ": 43655,
  "▁କମାଲ": 24975,
  "▁enterprise": 18573,
  "▁୨୯୯": 63125,
  "▁ପୁର୍ବରୁ": 34220,
  "iba": 32832,
  "▁ବୁଢୀ": 28348,
  "▁removing": 19993,
  "▁Add": 23637,
  "▁Germ": 37170,
  "¼": 147,
  "▁unemployed.": 42331,
  "-ଆଲିଆ": 61543,
  "▁ଗୁଜର": 61671,
  "▁ଦମ୍": 39198,
  "▁ଯତ୍ନବାନ": 35316,
  "▁ନୂଆକରି": 64480,
  "▁title": 18349,
  "▁ବୃତ୍ତା": 54650,
  "ଢ଼ାରେ": 30391,
  "ଓଡ଼ିଆ": 5700,
  "▁ଅଘଟଣ।": 65760,
  "▁toys.": 61330,
  "▁ପ୍ରତିଶ୍ରୁତି": 8599,
  "▁ଡୋକଲାମ": 31605,
  "▁ପାଲଟିଥିବା": 37963,
  "ଭି": 1398,
  "▁ସୁପରଭାଇଜର": 42926,
  "▁pump": 54424,
  "▁ବୃକକ୍": 49536,
  "▁ଆଲିଙ୍ଗ": 24803,
  "▁ସମନ୍ଵଯ": 38428,
  "▁ଉଦ୍ଘାଟିତ": 22061,
  "▁Support": 24399,
  "▁ରାଜୁତି": 42862,
  "▁own": 2521,
  "▁ତାଳକୁରୁଣିଆ-": 41057,
  "▁frontiers,": 60563,
  "▁disseminating": 51677,
  "▁ବୋଧି": 53915,
  "ଶ୍ଯ": 2443,
  "▁ଶାପ": 50961,
  "▁ଆଖୁ": 15891,
  "▁ବୁଦ୍ଧିମାନ": 32342,
  "▁ଘୋଡ଼ାଇ": 55092,
  "-ଉତ୍ତର": 70570,
  "▁Ashraf": 68022,
  "▁ତ୍ରୈଲୋକ୍ଯ": 74832,
  "▁ଶୁଭ୍ର": 55888,
  "75": 42876,
  "▁ନିର୍ଦ୍ଧିଷ୍ଟ": 23721,
  "ିକୃତ": 27870,
  "▁suspended": 15404,
  "▁particular,": 4905,
  "▁suspending": 42550,
  "▁ଦିନର": 9540,
  "▁images": 32513,
  "▁ପଢିବାକୁ": 23655,
  "▁ଲୋଟ": 63027,
  "▁ଆରାଧ୍ଯା": 70870,
  "▁ମୋହ": 16174,
  "▁Azerbaij": 23304,
  "▁ପୁନରାବୃତ୍ତି": 36571,
  "▁ସୁବାସିତ": 71708,
  "▁André-Léon": 73980,
  "▁ହାଇୱେ": 48342,
  "▁conformity": 32152,
  "ଗର୍‌": 53988,
  "▁କୋଶ": 39843,
  "▁Somali": 62911,
  "▁numbers": 13285,
  "▁exception": 7610,
  "▁authority": 7333,
  "▁left)": 59028,
  "▁ଶତ୍ରୁର": 65546,
  "ଗନ": 22243,
  "▁irresponsible": 19686,
  "କ୍ଷଣେ": 39302,
  "▁consumers'": 28289,
  "▁ତନ୍ମଧ୍ଯ": 39424,
  "lood": 53215,
  "▁ଛାଡ଼ନ୍ତୁ": 63708,
  "5": 36,
  "ଆଇଡିଏ": 32783,
  "▁Hugh": 36456,
  "sile": 36515,
  "▁ଷ୍ଟୁଡେଣ୍ଟ": 57223,
  "▁ରୁଷ୍‌": 64224,
  "▁ରଚନାରେ": 68000,
  "▁220": 62162,
  "ବାଦ୍ୱାରା": 74135,
  "▁explo": 7001,
  "▁ନବେ": 49107,
  "ଙ୍କ…": 25328,
  "▁Kinnock": 19787,
  "▁ପୁରି": 33109,
  "▁myth": 36518,
  "▁ଅବତାରଣା": 61063,
  "▁ସିରିଜରେ": 30171,
  "▁ଆଗମନ": 24960,
  "▁Americans,": 46309,
  "▁1": 1329,
  "astrich": 13432,
  "ବେନ୍ଦ୍ର": 40746,
  "▁ନ୍ଯୁଜିଲାଣ୍ଡ": 22829,
  "▁ଉଠ": 3188,
  "న": 685,
  "▁ଅଙ୍ଗରେ": 56940,
  "ାଗାରରେ": 29756,
  "▁brok": 16834,
  "ଏବ": 12887,
  "▁ଧରଣୀ": 37794,
  "▁ବାରଣ୍ଡାରେ": 39143,
  "▁କଣ୍ଠର": 54123,
  "▁illegally": 24251,
  "▁inquiry": 20569,
  "▁ପୁନରୁତ୍": 34735,
  "▁ଚମତ୍କ": 51339,
  "▁whistle": 60614,
  "▁ଉଇକିଡାଟା": 11226,
  "▁ନେହେରୁଙ୍କ": 28814,
  "ୁଲ୍ଯ": 40092,
  "▁ହ୍ଯାଟ୍ରିକ": 74247,
  "▁ସ୍ୱାଧୀନାବ୍ଦ": 26474,
  "les": 3938,
  "▁ଏସ୍‌.": 44410,
  "▁ସିଂହଦ୍ୱାରରେ": 66939,
  "▁ଗୀତ": 5436,
  "▁୮୬": 18932,
  "▁here?": 37642,
  "▁ଭଯଭ": 15685,
  "▁ପ୍ରହଲ୍ଲାଦ": 58397,
  "▁blamed": 49025,
  "▁ସଦାପ୍ରଭୁଙ୍କ": 15916,
  "▁ପୁଷ୍କ": 17087,
  "▁ଲୁଟ୍‌,": 60291,
  "▁‘ରେସ୍‌": 67414,
  "▁କୁନା": 34358,
  "▁spatial": 54849,
  "▁ଏଯାରୱେଜ୍": 56217,
  "▁ନୂଆପି": 68557,
  "▁integrity,": 62813,
  "▁କାହାରି": 15141,
  "▁(୨୪": 69385,
  "▁ମାଲକାନଗିରି:": 26258,
  "▁ହୋଇଥାଏ": 3674,
  "▁custom": 7709,
  "▁ଖବରକାଗଜରେ": 35127,
  "▁consultation.": 36473,
  "rate": 39194,
  "itorial": 39368,
  "▁rates,": 29043,
  "za": 33279,
  "▁କରିବେ…": 13055,
  "▁long-d": 48328,
  "▁ପ୍ଯାରି": 31957,
  "war": 27072,
  "▁ନେଲା": 7416,
  "▁cheaper": 23445,
  "▁ହୃଦଯ": 7952,
  "▁ସମ୍ମେଳନ": 70639,
  "▁ଇଲିଆ": 44479,
  "କରଣ,": 47028,
  "▁ଇସ୍‌": 38200,
  "▁ସ୍ୱଭାବର": 35010,
  "▁justice.": 15465,
  "ମ୍‌ରେ": 9405,
  "▁ସର୍ଟସର୍କି": 17011,
  "▁ଆଇସିସି": 18254,
  "▁‘ମୋ": 16828,
  "ଶକ୍ତିର": 53703,
  "▁ମହିଳାମାନଙ୍କ": 19024,
  "▁2003.": 19747,
  "ଣ୍ତେ": 70307,
  "▁rack": 73613,
  "ସ୍ମାନ": 65905,
  "▁କଥାବାର୍ତ୍ତାକୁ": 69437,
  "▁ସହିଷ୍ଣୁ": 69743,
  "▁ନୁହଁ": 8816,
  "▁Trafficking": 56588,
  "▁କମ୍ଯୁନିଷ୍ଟ": 40133,
  "les,": 13176,
  "▁କରିଛି,": 25724,
  "ima": 32770,
  "▁240": 66316,
  "▁Sahara.": 59628,
  "▁ଚାଇନାର": 46208,
  "▁ଲାଇସେନ୍ସରେ": 10395,
  "▁କରିସାରିଛନ୍ତି।": 46097,
  "ଓଏ": 66196,
  "stit": 60652,
  "▁applause)": 35507,
  "▁enhanced": 14859,
  "▁depends": 13465,
  "▁Balkans.": 23114,
  "ପେଣ୍ଡ": 56501,
  "▁ପ୍ରତା": 63585,
  "▁ମାସିକ": 11346,
  "▁broke": 38671,
  "ए": 432,
  "▁ଘନିଷ୍ଠ": 26354,
  "▁ଶଶିଭୂଷଣ": 35956,
  "୍ୱା": 8102,
  "ପଟୁ": 23808,
  "▁Resources": 66647,
  "▁days'": 45829,
  "▁ଊ": 7975,
  "▁ଆଖଣ୍ଡଳମଣି": 48802,
  "▁ଲୂକ": 54233,
  "▁କେନ୍ଦୁଝରରେ": 36499,
  "▁ଏମ୍ବା": 15639,
  "▁ହଡ": 24067,
  "▁ସମ୍ଭବ।": 74654,
  "wear": 45630,
  "▁ନ୍ଯାଯାଳଯର": 41828,
  "'Al": 43367,
  "▁libraries": 49222,
  "▁ସସପେ": 29235,
  "▁ଲିଓ": 25419,
  "▁କାଳକ୍ରମେ": 58533,
  "▁ଅଲାରନାଥ": 59383,
  "▁Cape": 60897,
  "ସିଂଟ": 57993,
  "କ୍...": 19130,
  "▁ଅପରାଧି": 42322,
  "▁expenses,": 62353,
  "asa": 42187,
  "▁ସବୁଆଡ଼େ": 68197,
  "▁ଚୋରାଇ": 62591,
  "▁-.": 37790,
  "▁ବେଡ୍": 67249,
  "▁ଡବା": 44366,
  "▁ପାଠକୀଯ": 51517,
  "▁ସଂରଚନା": 40447,
  "▁before.": 19764,
  "ବର୍ଦ୍ଧ": 16895,
  "▁hypothetical": 62097,
  "▁possibilities.": 51511,
  "▁ବାସିନ୍ଦା": 12909,
  "▁rolling": 41005,
  "▁ରରେ": 62446,
  "▁ଦକ୍ଷିଣା": 22501,
  "metics": 42364,
  "▁ଯୁପିରେ": 48526,
  "▁ଆଯରେ": 60140,
  "▁personality,": 73672,
  "▁ବିରୋଧୀଦଳ": 45813,
  "▁ନିଷେ": 53628,
  "▁sittings:": 73423,
  "▁ସଂଧ୍ଯାର": 74489,
  "ମ୍‌": 2105,
  "▁wood": 23291,
  "▁ଯଦୁ": 33063,
  "▁ଭଏସ": 50323,
  "▁ହୃଦ୍‌ଘାତ": 33184,
  "▁mandate.": 26620,
  "ଲେସ୍‌": 41971,
  "for": 4576,
  "▁ପ୍ରଦର୍ଶନ,": 62845,
  "▁full": 3948,
  "▁paragraph,": 58092,
  "…!!!": 12127,
  "dean": 46274,
  "▁ବବୁ": 59904,
  "▁ଜେଟ୍ଲୀ": 69880,
  "▁ଶିକ୍ଷାନୁଷ୍ଠାନ": 12890,
  "▁votes": 10025,
  "▁ଭେଟିବାକୁ": 27338,
  "tsch": 66937,
  "▁low-c": 32439,
  "▁ବେହୋସ": 66467,
  "▁aforementioned": 30910,
  "/99)": 36535,
  "▁sweet": 40548,
  "▁interact": 52283,
  "orest": 70317,
  "▁ଲିପି": 20683,
  "unes": 65009,
  "▁poore": 9924,
  "▁ଡେଲିଭରି": 19661,
  "▁ଯ଼ୋଗ": 25264,
  "▁ଏପି": 24147,
  "▁considers": 11940,
  "▁ଦେଖାଦେ": 26920,
  "▁ବସୁଥିବା": 74284,
  "▁ରହୁଥିବା": 8235,
  "▁highlight": 5482,
  "▁card.": 62914,
  "▁ବୁକ": 31703,
  "▁summary,": 44982,
  "▁ପୁରାଣରେ": 36933,
  "▁ଡଲ": 45176,
  "▁୫୧୧": 27413,
  "▁assets": 20430,
  "▁Ferrero-Waldner,": 49527,
  "emporary": 22221,
  "▁Neighbour": 19629,
  "▁ସମ୍ପାଦ": 4075,
  "▁ଅଳସ": 31363,
  "▁ଚକା": 17359,
  "▁ଫରକ୍": 48123,
  "ges.": 46728,
  "▁attraction": 58504,
  "▁ଆପ୍‌…": 20492,
  "▁holds": 21778,
  "▁ଆଡ଼େ": 32766,
  "▁achievement,": 63365,
  "ନୀଯ": 7370,
  "▁ସବ୍ଯସା": 21558,
  "▁ଓଗାଳ": 46349,
  "▁comments.": 21807,
  "▁(ଡି": 57999,
  "▁All": 4304,
  "-କଶ୍ମୀର": 20665,
  "▁sil": 12122,
  "[୨]": 21902,
  "▁୧୯୧୧": 74550,
  "▁କଟକରେ": 13921,
  "33": 28595,
  "▁ଆର୍ଜେଣ୍ଟି": 21209,
  "▁କାଂସ୍ଯ": 29199,
  "▁bills": 55328,
  "abb": 62182,
  "▁encompasses": 47207,
  "▁_-": 19678,
  "▁ଉଦ୍ଧାରକାର୍ଯ୍ଯରେ": 69497,
  "ଣାଗ": 9368,
  "▁ଅନ୍ତତଃ": 27940,
  "▁news.": 41985,
  "▁measure": 7847,
  "▁graduates": 60779,
  "▁cloning.": 62644,
  "▁ଛ।": 68543,
  "▁ସନ୍ତୋଷଜନକ": 43339,
  "ସଂସ୍ଥାନ": 66616,
  "ାବିରା": 35611,
  "▁ODISHA": 53597,
  "କାରରେ": 58484,
  "▁ଝାଡଖଣ୍ଡର": 62946,
  "▁କ୍ଯାବିନେଟର": 23963,
  "▁ସିଇ": 38293,
  "lings": 49544,
  "▁ଗ୍ଭହିଁ": 54138,
  "▁ନୀତିର": 43309,
  "▁ବାଡ଼": 44240,
  "hn": 23236,
  "▁taught": 28788,
  "ପକ୍ଷରୁ": 53873,
  "▁ହୋଇଯାଇପାରେ": 65080,
  "▁ପରାଧୀନ": 74203,
  "▁ଗୋବିନ୍ଦା": 37005,
  "▁backb": 36842,
  "▁’": 16928,
  "▁I.": 47644,
  "▁well-t": 63338,
  "ଉପରେ": 31575,
  "▁Burundi": 43068,
  "YROM": 32543,
  "▁ନଟ୍": 59415,
  "▁ଲାଇଟ୍‌": 28963,
  "▁GSP": 27359,
  "▁ପୁରସ୍କାର।": 68272,
  "▁intolerable.": 58599,
  "▁କୀର୍ତିମାନ": 67763,
  "▁overlook": 17590,
  "▁gradu": 9638,
  "▁ସହଯାତ୍ରୀ": 68899,
  "▁mackere": 68873,
  "▁intense": 21865,
  "us": 1254,
  "▁asser": 28798,
  "rim": 31069,
  "▁flagship": 41587,
  "▁ପିଯୁଷ": 48402,
  "▁ସୋନାଲିଙ୍କ": 68011,
  "ର୍ବ": 2150,
  "▁require": 2954,
  "▁ସଂସ୍ଥାମାନେ": 73404,
  "ographic": 13498,
  "▁୧୯ତମ": 74111,
  "କେହି": 28206,
  "ସାହିରେ": 43242,
  "ନଥିବାରୁ": 23669,
  "▁ମଧ୍ଯରାତ୍ରୀ": 72683,
  "▁ସଂଘଟିତ": 63087,
  "▁(B6-0": 70155,
  "▁ଦମ୍ପତିଙ୍କ": 20294,
  "▁ଏଯାବତ୍‌": 32301,
  "▁ଏଜେଣ୍ଡା": 49643,
  "▁ବେତାର": 70604,
  "▁ହୋଇପାରିଛି।": 42939,
  "▁table.": 24456,
  "▁fleet,": 46674,
  "standing.": 61963,
  "▁କେଳ": 28438,
  "ition": 1578,
  "iciencies": 73202,
  "▁ଭାଷ": 2903,
  "▁please.": 68340,
  "▁ମଂଜ": 16975,
  "▁so": 1585,
  "▁During": 11889,
  "▁ରାଗିଂ": 49813,
  "▁Er": 18480,
  "▁partners.": 16450,
  "▁see.": 27147,
  "▁କୋର୍ଟ": 4708,
  "▁prepa": 64751,
  "କ୍‌ସ": 56674,
  "ଗଡ଼ା": 8475,
  "▁virtual": 32346,
  "▁Obama": 39088,
  "▁manner": 7476,
  "୍ଲୁ": 9463,
  "▁residues": 47744,
  "▁fail,": 57608,
  "▁ବାହୁଡା": 33380,
  "▁accountability": 16947,
  "▁pensions,": 34768,
  "▁Transport": 10746,
  "▁ଗନ୍ତବ୍ଯ": 43702,
  "▁ଅତ୍ଯୁକ୍ତି": 43793,
  "▁load": 41196,
  "▁requisite": 45990,
  "▁ଗ": 1107,
  "▁ହେବ।": 3485,
  "▁ହସ୍": 4987,
  "▁Martin,": 50422,
  "▁well": 2253,
  "▁ସର୍ଭର": 50668,
  "we": 1884,
  "▁କଳାଦିବସ": 49586,
  "▁programme,": 9572,
  "େବୀ": 10709,
  "▁ଡିଲି": 21503,
  ".୧୧": 33226,
  "▁ଆଣିଛନ୍ତି।": 29697,
  "▁Council;": 52745,
  "▁unofficial": 59441,
  "▁ଜବ୍": 60206,
  "▁ନିତିନ": 63152,
  "-ପ୍ର": 22926,
  "▁threshold,": 74726,
  "▁କରିନେବେ": 70539,
  "holder": 19529,
  "▁ପାଲଟିଲାଣି": 73854,
  "house": 12529,
  "▁ପ୍ରଦେଶର": 14406,
  "▁କ୍ଯାବିନେଟରେ": 39475,
  "▁food.": 23614,
  "▁ଟ୍ଵ": 19014,
  "ଁସ": 41779,
  "▁circulated": 59746,
  "▁ରୁଜୁ": 7195,
  "▁ପୁତ୍ର।": 56529,
  "ns": 36238,
  "▁would": 1364,
  "▁assuming": 28219,
  "▁ବେଲ୍": 44943,
  "▁approving": 21942,
  "ଲାଇଟ": 51925,
  "▁କୋରିଆକୁ": 68737,
  "▁dose": 59447,
  "▁opposes": 43738,
  "▁Brok's": 71303,
  "▁Pare": 60663,
  "▁ବ୍ଯଯ": 10976,
  "▁ପଲ୍": 74911,
  "ସ୍କୃତି": 10733,
  "▁ହାତମୁ": 74103,
  "▁କେନ୍ଦୁଝର:": 23242,
  "▁ଦିବ୍ଯାଙ୍ଗଙ୍କୁ": 37482,
  "igh": 1287,
  "▁instability.": 54834,
  "▁ଶିକ୍ଷାଲାଭ": 39777,
  "▁Gil-Rob": 57021,
  "▁ସଂଶୋଧ": 49497,
  "▁ଲଯ": 58702,
  "▁Belgium,": 24160,
  "▁tarn": 74156,
  "▁ଖଣିକୁ": 69741,
  "▁flame": 59982,
  "▁criminal": 6241,
  "▁afterwards": 44158,
  "ames": 11835,
  "(ଡି.ଏନ.ଏ)-": 31011,
  "▁achieve,": 42623,
  "ାବୁଲି": 49777,
  "▁103(2)": 57019,
  "▁differently": 27116,
  "▁କାଉନ୍‌ସିଲ": 47492,
  "▁ଦଇ": 14605,
  "▁ଫସଲ": 6749,
  "▁♦": 23809,
  "▁ସାବଧାନ,କାନ": 64887,
  "▁ଗ୍ଯାସ": 8392,
  "▁କାର୍ଯ୍ଯାଦେଶ": 49376,
  "▁appalled": 54825,
  "cosur": 22851,
  "ଂଚାଳିତ": 57107,
  "ାଦିତ୍ଯ": 32220,
  "▁in,": 17546,
  "ances": 3702,
  "ଭାଲ": 36258,
  "oint": 1685,
  "▁ଦୂରୀକରଣ": 45431,
  "▁କାଶୀନଗର": 60809,
  "▁Goeb": 41486,
  "▁opinion,": 6480,
  "ାଇବ": 9804,
  "oting": 20174,
  "▁ସିନ୍ଦ": 19950,
  "▁ଚାବି": 11678,
  "▁ଲିପ୍‌": 45716,
  "▁ହେଲାଣି।": 34422,
  "▁‘ମାଳି’": 53334,
  "▁ମଧୁସ୍ମିତା": 69734,
  "▁arguments,": 43236,
  "ସମ୍ମାନ": 22132,
  "▁ପର": 1285,
  "ଓଁ": 28471,
  "▁Future": 39517,
  "ighters": 51888,
  "▁ଉପବାସ": 21106,
  "lines,": 26418,
  "▁Bod": 68541,
  "▁well-off": 63457,
  "▁ସୋରିଷ": 22677,
  "▁ପ୍ରାଯେ": 44262,
  "▁ସେବାର": 21869,
  "▁ବିଶିଷ୍ଟ": 6379,
  "▁ରଚନା": 10707,
  "▁ଘଟିଲା": 18729,
  "▁ଖାଦାନ": 35717,
  "▁lists,": 60975,
  "▁partners,": 17017,
  "▁languages": 12839,
  "▁prim": 6945,
  "▁ହସିନା": 44292,
  "▁professionalism": 55925,
  "▁collapsed": 58644,
  "▁ପ୍ରଫୁଲ୍ଲିତ": 62893,
  "ପାଟଣାଗ": 52990,
  "▁ହଟ୍‌": 41879,
  "▁Food": 11648,
  "▁ଚନ୍ଦ୍ର,": 23022,
  "ୱାଡ଼ା": 62850,
  "▁temporary": 10573,
  "(ପି.ଟି.": 17150,
  "▁Jud": 30393,
  "▁ନୋଟ୍‌,": 16558,
  "▁ଜୁସ": 47416,
  "▁ଟଳି": 29927,
  "▁ଦାସବର୍ମା": 24964,
  "▁ପୁରୁ": 3129,
  "▁ଉପଦେ": 23335,
  "▁ଅବୁଝା": 64950,
  "▁and": 1055,
  "▁dimin": 23071,
  "ithuan": 12499,
  "▁ଚିହ୍ନିବା": 49324,
  "▁ବାଡି": 41431,
  "ved,": 8632,
  "୫୯": 69926,
  "▁ସ୍ନାକ୍ସ": 73819,
  "ସରେ": 2448,
  "ounded.": 53477,
  "▁database.": 74803,
  "କାରୀଙ୍କୁ": 13505,
  "▁ଜବ": 3167,
  "ଳର": 3867,
  "▁Mean": 23087,
  "▁complac": 38218,
  "ହତଙ୍କ": 69202,
  "▁outc": 71116,
  "▁ସ୍ନେହ,": 53936,
  "▁citizens’": 30159,
  "▁shortcoming": 25681,
  "▁ବଧ": 21164,
  "▁existing": 5199,
  "▁vehemently": 55376,
  "▁excellence,": 63692,
  "eline": 71852,
  "▁Sch": 4993,
  "▁ପରିଧି": 32602,
  "ଉଠ": 22310,
  "▁lorries": 32998,
  "▁manipulation": 41759,
  "▁ଟକ୍କର": 14719,
  "▁Schüssel": 47696,
  "▁ବୃଷ,": 29953,
  "▁Ju": 17906,
  "▁ରେଜିଷ୍ଟ୍ରାର": 68104,
  "oving": 69916,
  "୧୭,": 73775,
  "▁tolerate": 23624,
  "▁ଯେଉଁଠାରେ": 15054,
  "anes": 27160,
  "▁ନିଃଶ୍ୱାସ": 41847,
  "▁ରୁମ୍": 32604,
  "▁news,": 46033,
  "▁holid": 20857,
  "▁ତାରତମ୍ଯ": 57960,
  "ases": 9590,
  "୍ଚ୍ଚ": 5644,
  "ably.": 34414,
  "▁ଦସ୍ଯୁ": 67186,
  "▁ଲଂଚ": 16676,
  "ン": 861,
  "▁ପେଷ୍ଟକୁ": 70200,
  "▁85%": 54475,
  "▁ଇମରାନ": 67143,
  "▁ଗେଲ": 39278,
  "▁ଶ୍ରୀକାକୁଲ": 26577,
  "▁ଚିନାବାଦାମ": 61595,
  "▁ଦିଗପହ": 27880,
  "ichester": 43811,
  "▁ଦିଅନ୍ତୁ।": 12907,
  "ଶଙ୍କର": 14718,
  "▁unmist": 68453,
  "▁dispute": 12778,
  "▁ସମିତି": 9223,
  "▁ରୀତିମତ": 72077,
  "ସ୍ଥଳୀ": 16832,
  "▁apport": 48045,
  "୍ୱ": 1184,
  "▁ମେଡିକାଲରେ": 13980,
  "▁Guinea,": 63482,
  "ତ୍ତା": 4041,
  "ther": 1487,
  "▁ସାଂସ": 5014,
  "ନିଯ": 27358,
  "▁ଇ-ଶାସନନୀତି": 73926,
  "▁via": 10007,
  "▁ହୃଦଯସ୍ପର୍ଶୀ": 62012,
  "▁ପରିମ": 57351,
  "ସେଲିଂ": 45313,
  "і": 382,
  "▁Az": 13686,
  "▁demonstrated,": 59742,
  "▁ଚାକି": 4473,
  "▁a.m.)": 46094,
  "▁ଶହରୁ": 42432,
  "▁ରିପୋର୍ଟର):": 4367,
  "atories": 27553,
  "▁ଆଲିଆଙ୍କ": 54548,
  "▁ନାଳ": 15582,
  "nings": 54974,
  "▁frag": 18572,
  "ପୁଷ୍ଟ": 68222,
  "▁ସାଥୀ,": 66697,
  "▁data": 5059,
  "▁expand": 12566,
  "▁ଅଫିସରଙ୍କ": 19291,
  "▁ରାଜିନାମା": 39010,
  "▁Bologna": 52547,
  "▁ଦୋହରାଇ": 71718,
  "ଜୋତ": 73353,
  "▁specific": 3427,
  "▁elected.": 56093,
  "▁ଉଡ଼ିଗଲା": 73864,
  "ୋତ୍ତମ": 18548,
  "▁ଗୁହା": 27165,
  "▁Board,": 69472,
  "▁sor": 12163,
  "୩ଟି": 31659,
  "▁ତୁମ୍ଭମାନଙ୍କର": 26645,
  "▁ଫ୍ରାନ୍ସର": 40772,
  "▁ଏକପାଦ": 44474,
  "pp": 1346,
  "▁ଷ୍ଟୋ": 13545,
  "▁(ଓଡି": 54916,
  "▁କ୍ଷତ୍ରିଯ": 58897,
  "▁Question": 9367,
  "▁ଚଢ଼ାଇ": 74653,
  "▁ଇନ୍‍": 63743,
  "▁କେଉଁଠାରେ": 28830,
  "▁Pack": 20581,
  "▁down,": 21802,
  "ond": 5028,
  "▁ପଟେଲ": 14547,
  "ଶୀଳନ": 35207,
  "▁everybod": 33548,
  "▁Cancún.": 66143,
  "▁ମାତାର": 70872,
  "▁[": 4148,
  "▁ବିମ": 20955,
  "▁ବେଲଟିକିରି": 63832,
  "▁HIV/AIDS,": 68424,
  "କ୍ସନ୍‌": 46166,
  "▁ଫାଟିଲା": 64330,
  "▁ରହୁଛି": 20243,
  ".୧୨": 31273,
  "ciliation": 8357,
  "ର୍ଷ": 1383,
  "▁ରାଫେଲ": 13194,
  "usse": 20267,
  "▁“ମହାରାଜ": 40040,
  "▁Community's": 16679,
  "▁ଅର୍ଦ୍ଧଶତକ": 34166,
  "ਲ": 516,
  "▁professions,": 62570,
  "▁Exec": 27583,
  "▁neighbours,": 28494,
  "▁ଏହାଙ୍କୁ": 66241,
  "ience": 15700,
  "▁ବିଛିନ୍ନାଚଂଳ": 48396,
  "▁message:": 67975,
  "▁ମେଟ": 16236,
  "▁posted": 43302,
  "▁exploited": 24842,
  "ଫ୍ରି": 46240,
  "▁ଭୁବନେଶ୍ବର": 9690,
  "▁ସୁଝ": 40656,
  "▁ବଂଚିବାକୁ": 63740,
  "▁ବ୍ଯାଚର": 59217,
  "▁ପ୍ରଦେଶକୁ": 60757,
  "EF": 37496,
  "▁ରବର୍ଟ": 55063,
  "▁ମିଳିପାର": 58968,
  "": 906,
  "▁କୁମୁ": 40350,
  "▁recording": 41288,
  "▁୧୨ଟାରୁ": 58972,
  "▁assign": 35299,
  "▁ସାମନ୍ତରାଯଙ୍କ": 63194,
  "▁ବ୍ରତ": 15512,
  "▁ବିଧାଯକଙ୍କର": 60473,
  "▁Here,": 23004,
  "ପୁଟରେ": 64497,
  "▁omn": 66452,
  "▁ଜଣା।": 68235,
  "▁ଜିଲ୍ଲାରୁ": 26047,
  "▁punished": 31091,
  "▁ଡ୍ଯାନ୍ସର": 73821,
  "pecial": 3358,
  "▁କିସ୍": 31468,
  "▁ପୀଡ଼ିତା": 13152,
  "▁ଦଳଗୁଡ଼ିକ": 29581,
  "▁ultra-": 36544,
  "▁channel": 20079,
  "annes": 22557,
  "▁ବିଶେଷ,": 64790,
  "▁murder": 15043,
  "e": 84,
  "▁ବାହିନୀର": 28200,
  "apacity": 54453,
  "urban": 71077,
  "ସାର,": 71570,
  "▁ଗୋବିନ୍ଦପୁର": 46685,
  "ଶ୍ରମରେ": 43413,
  "▁reversing": 57257,
  "-controlled": 73498,
  "▁explosion": 35695,
  "ଣ୍ଡାରୁ": 60675,
  "▁Ny": 74047,
  "ଶିଷ": 11844,
  "▁monthly": 41813,
  "▁ନିଗମ(": 56964,
  "▁ଦିବ୍ଯାଙ୍ଗ": 13296,
  "▁(ଆଦିସ୍ଯ)": 28335,
  "▁concept,": 39463,
  "▁sewage": 60360,
  ".ଏନ୍": 43728,
  "▁ଦେଖିବା": 7542,
  "▁expenditure": 8623,
  "▁ପ୍ରଶାସନିକ": 11116,
  "▁ବାଢ଼ି": 48562,
  "▁114": 67292,
  "look": 13930,
  "▁preliminary": 16155,
  "ଵ": 596,
  "▁penalties.": 46085,
  "▁ଅନୁକୁଳ": 63307,
  "ନିଧି": 23567,
  "▁'S": 25793,
  "▁deserv": 41087,
  "▁ଛୁରା": 60683,
  "▁ବ୍ଯାଟ୍": 17478,
  "▁coup": 29125,
  "▁representation.": 57111,
  "▁କଳାକାରଙ୍କ": 25121,
  "ଙ୍କରାଚାର୍ଯ୍ଯଙ୍କ": 61318,
  "▁ମହିଳାମାନେ": 8598,
  "ମୁଠି": 70357,
  "▁sport": 8244,
  "▁reput": 22509,
  "illeg": 5316,
  "▁dict": 9013,
  "▁ଉଷ୍": 54231,
  "▁କୋଟିର": 10418,
  "▁sadness": 59792,
  "ଲେଜ": 65315,
  "▁subsistence": 59388,
  "onial": 40153,
  "▁କେନ୍ଦୁଝର": 6332,
  "▁ପ୍ରଡକ୍ଟ": 32300,
  "▁ଆଇଫୋନ": 44830,
  "▁କିରୋସିନ": 49830,
  "▁ଦାଦାବଟି": 54587,
  "▁German,": 44508,
  "▁Memorandum": 56617,
  "▁ଦ୍ୱାଦଶୀ": 64209,
  "▁mel": 52892,
  "▁ଶତୃଘ୍ନ": 65237,
  "ଶ,": 37347,
  "▁ଏସିପି": 49492,
  "୦୦": 1972,
  "▁କୋଣାର୍କର": 45827,
  "▁ବାର୍": 4348,
  "ଡ୍ଡା": 25499,
  "ocal": 28858,
  "▁reorganisation": 46220,
  "▁ଇସ୍କ": 30419,
  "Europe": 6568,
  "▁ଉଦ୍ଯୋଗୀଙ୍କ": 66034,
  "▁85": 28210,
  "▁ଟାବ୍‌": 63532,
  "LIVE": 54791,
  "▁wanted": 7252,
  "♦": 820,
  "ାର୍ଣ୍ଣବ": 63834,
  "▁ଗୁଳିକାଣ୍ଡ,": 66719,
  "▁ସମ୍ପାଦକ,": 60737,
  "▁ପତ୍ରିକା": 14492,
  "orthy": 29221,
  "▁employs": 48860,
  "▁ବ୍ଯତିବ": 54819,
  "▁ପଡୁଥିବାରୁ": 67694,
  "▁ପ୍ରଯୁ": 50012,
  "▁aggravate": 69494,
  "▁ମୃତକ": 17603,
  "▁dignified": 38545,
  "▁ପ୍ରତିନିଧିଙ୍କୁ": 35628,
  ",୧୧": 22846,
  "▁Democrat": 5948,
  "▁ଜିନିଷର": 37189,
  "▁ଅପମାନଜନକ": 65774,
  "ପ୍": 1648,
  "▁ନକ୍ସଲ": 12384,
  "▁ଲୁକ୍କ": 48083,
  "▁ଚଣ୍ଡ": 51411,
  "▁substances": 8955,
  "▁ସ‌ହିତ": 43890,
  "struction": 11118,
  "▁ଲୁଚି": 9841,
  "▁ଲୋକପାଳ": 41259,
  "▁ଉଦଘାଟିତ": 19383,
  "▁accessible": 15211,
  "▁positive,": 25754,
  "▁ସାଧୁବାଦ": 56157,
  "▁offensive": 28955,
  "▁England,": 51178,
  "▁ରକ୍ତଦାନ": 18147,
  "▁ଯୋଜନା": 2708,
  "ତେ": 1907,
  "କ୍ରି": 4910,
  "▁pil": 14290,
  "▁ସ୍ପେଶାଲ": 24543,
  "▁ଇ-ପ୍ରଶାସନ": 25731,
  "▁ହୋଇନି": 26799,
  "▁କାଉଣ୍ଟର": 24624,
  "▁ରଙ୍ଗରେ": 28114,
  "▁ଶିକାରୀ": 29144,
  "▁ତେଣେ": 33025,
  "▁ନିଷ୍ଠାର": 38492,
  "▁AB": 64452,
  "▁ଯୁଧିଷ୍ଠିର": 21263,
  "▁ଦଶହରାରେ": 42681,
  "▁nav": 20236,
  "▁ସାମର୍ଥ": 17207,
  "▁ଜିଏସଟିର": 67656,
  "artin": 74952,
  "▁ମନ୍ତ୍ରଣା": 52460,
  "▁ରେଞ୍ଜ": 17129,
  "ଞ୍ଜାମ": 18144,
  "▁‎[": 72403,
  "▁purse": 54473,
  "iles.": 56836,
  "▁ନେବୁ": 64004,
  "ପକ୍ଷରେ": 5396,
  "▁ୱେଷ୍ଟ": 19076,
  "▁ସ୍ପେସା": 62621,
  "▁ଜନସାଧାରଣଙ୍କ": 19318,
  "▁rect": 22176,
  "▁ଦିଏ,": 46807,
  "▁ଅପରାଧ": 6059,
  "ମେନ୍‌": 74969,
  "ums": 62165,
  "▁attracted": 39948,
  "aked": 44589,
  "▁years:": 59965,
  "▁ମୋଡ଼ରେ": 55011,
  "▁ଲେଖାଗୁଡ଼ିକ": 53467,
  "ଟାଙ୍କୁ": 32422,
  "▁ବିଭୁ": 26891,
  "▁sexual": 10116,
  "▁୨/": 54240,
  "ମାର୍ଗରେ": 52868,
  "▁ଗୁମ୍ଫ": 63180,
  "૴": 531,
  "▁ପେଷ୍ଟ୍": 56392,
  "ମ୍ସ": 28947,
  "▁Whereas": 45597,
  "ଗୁନ": 44137,
  "▁countries:": 44132,
  "reating": 57082,
  "▁mur": 14712,
  "▁democracies": 27230,
  "▁ପେପରରେ": 64099,
  "▁tissues": 55576,
  "▁crew": 22858,
  "▁ତେଲ,": 31995,
  "/୧୭": 38271,
  "▁defined,": 45812,
  "▁Converse": 66270,
  "▁ଆଲାର୍ମ": 71244,
  "▁ବିଶ୍ଳେଷଣ": 33730,
  "▁Schmid": 27926,
  "ରାଙ୍ଗ": 46023,
  "▁ଉପଲବ୍‌": 65264,
  "▁କାନ୍ତକ": 54026,
  "ୋସିଏସନ": 69174,
  "▁ରକ୍ତମୁଖା": 52620,
  "ାଯ଼": 24460,
  "ସାହି,": 57902,
  "▁ଭାଷା,": 28874,
  "ଉଛି।": 52710,
  "▁କୋଚ୍‌": 27195,
  "ଗଣଙ୍କୁ": 38394,
  "▁ଜାଣିବା": 3835,
  "改": 874,
  "▁ନନ୍ଦନକାନନରେ": 40135,
  "▁peoples": 10075,
  "▁1990s.": 61048,
  "▁compiled": 48075,
  ".୮୩": 72501,
  "▁35%": 49346,
  "▁ନ୍ଯୁକ୍ଲିଯର": 45622,
  "▁ଭଦ": 63025,
  "▁other": 1666,
  "▁ଭିତରୁ": 9647,
  "▁ପ୍ରସଙ୍ଗରେ": 6601,
  "▁ଆଇଡଲ": 22353,
  "▁ଶତ୍ର": 55619,
  "tte": 31503,
  "zog": 41137,
  "ensus": 50799,
  "▁disagreements": 49801,
  "▁ଚିରାଚରିତ": 46576,
  "▁agents": 26434,
  "▁କାର୍ଯ୍ଯକରି": 60428,
  "▁ପ୍ରିଯାଙ୍କ": 61303,
  "▁ପୁଅ/ପ୍ରଶାନ୍ତ": 47339,
  "▁ହୋଇପଡ଼ିଛି।": 31869,
  "▁ଅଭିଯୋଗର": 14388,
  "▁rav": 49882,
  "▁ବଡ଼ସାହି": 39453,
  "▁ଏଚଡି": 66069,
  "ବାସ": 4830,
  "-୧୮ରେ": 64329,
  "▁କରାଯାଇପାରିବ": 13644,
  "▁ମହାକାଶ": 13140,
  "▁ପାଳିବା": 58296,
  "▁ବାଞ୍ଛ": 61850,
  "▁quotas.": 34056,
  "ିତୋଳ": 60389,
  "▁ହିନ୍ଦୀ": 12151,
  "▁expelled": 44120,
  "▁ମହମ୍ମଦ": 12444,
  "ାଯୋ": 33286,
  "▁individually.": 66140,
  "▁best.": 37728,
  "▁responsibly": 40914,
  "▁ବାଯୋ": 19509,
  "▁ସୋଭିଏ": 53471,
  "▁taxation": 11335,
  "▁ସାଇଣ୍ଟିଫିକ୍‌": 62678,
  "▁ବିନୋ": 16509,
  "ପ୍ରାପ୍ତି": 26206,
  "▁Djib": 71391,
  "▁କାର୍ଯ୍ଯାଳଯ,": 32660,
  "▁ଜରୁରିକାଳୀନ": 53401,
  "▁ଆହ୍ଵାନ": 18905,
  "▁ଡକାଇଲେ": 73778,
  "ଜାତିର": 33163,
  "▁ଜନକଲ୍ଯାଣ": 40542,
  "▁ପାତ୍ର,": 20982,
  "▁ରୋଗପ୍ରତିର": 62792,
  "ଶାସିତ": 23380,
  "▁ଅଧ୍ଯଯନ": 14516,
  "▁ସେନା,": 63989,
  "▁ଦାଯାଦ": 63980,
  "▁us,": 6389,
  "▁ଜ୍ଯାକ": 45714,
  "▁latter.": 49182,
  "▁Fland": 44595,
  "ଶସ୍ଯ": 46729,
  "▁କର୍ମଚାର": 3415,
  "▁unthinkable": 45386,
  "▁ସର୍ଭେରୁ": 28222,
  "MS": 41511,
  "▁north,": 65471,
  "ଐ": 559,
  "-or": 19081,
  "ଲୁଣ": 58519,
  "▁ge": 7807,
  "▁Uruguay": 44791,
  "▁seconds.": 51776,
  "▁ହାରିଲେ": 30587,
  "▁ଓ୍ଵିକେଟ୍": 46075,
  "▁ଇଣ୍ଟରନ୍ଯାସନାଲ": 32588,
  "▁version": 10740,
  "▁logic": 20813,
  "a'": 45392,
  "▁ଲାଇବ୍ରେରୀ": 47898,
  "▁magaz": 47479,
  "▁ଓ୍ଵାଟର": 47193,
  "▁ସଶ୍ରମ": 43380,
  "▁ମୋଦି": 2520,
  "▁“ମହାଶଯ": 58660,
  "▁ନଯନ": 11221,
  "▁କମିସନର": 24441,
  "▁ବିପ୍ଳବ": 30384,
  "▁bird": 36185,
  "୍,": 37560,
  "(ସ୍ବ.ପ୍ର.": 18219,
  "▁ଜେଟଲୀ": 21173,
  "ମ୍‌କୁ...": 54164,
  "▁ନିରାକାରପୁର": 59356,
  "▁ପଚାରିଥିଲେ": 46087,
  "▁Chechny": 23263,
  "▁Alban": 10401,
  "▁କଠ": 6195,
  "▁railways,": 43875,
  "▁disrep": 66247,
  "▁ସ୍ୱାଦିଷ୍ଟ": 19308,
  "▁inadmissible": 36172,
  "▁matters.": 13308,
  "▁ଜୀବନସା": 18090,
  "▁ସୀମା": 6872,
  "▁tragedy": 14874,
  "▁ତଲାକ": 30180,
  "▁ପୁରୁଷର": 43310,
  "▁ମାଛର": 42755,
  "▁ଯାଇପାରୁ": 66891,
  "▁ଚମ୍ପ": 14394,
  "▁happiness": 70039,
  "▁steer": 40701,
  "(1)": 22050,
  "▁prevent": 3660,
  "▁preferences,": 72524,
  "▁capital,": 23323,
  "▁ସଞ୍ଚାଳନ": 41295,
  "▁productions": 68951,
  "▁councill": 61918,
  "▁ମାନପତ୍ର": 46162,
  "▁ପବ୍ଲିସିଂ": 16697,
  "▁ଦେଖାଦେଲା": 58789,
  "▁units,": 66078,
  "▁paragraph": 6408,
  "▁ଥାଳି": 47161,
  "▁unbalanced": 48059,
  "▁Women’s": 39558,
  "▁ଦିବ୍ଯସିଂହ": 20309,
  "▁ମାନଙ୍କରେ": 18526,
  "▁Kalinga": 59842,
  "▁ଜିତିଥିଲା": 67626,
  "ୁର୍ଯ୍ଯ": 46021,
  "▁persistent": 30345,
  "▁thousands": 8500,
  "▁49,": 66914,
  "▁Represent": 11483,
  "▁flooding": 36627,
  "▁ମା’କୁ": 24532,
  "▁ପ୍ରତିଭାର": 43095,
  "▁man.": 49434,
  "▁campaign": 7100,
  "▁Beyond": 47982,
  "▁ମୁନରେ": 33018,
  "ij": 7793,
  "▁tragedy,": 43869,
  "▁ଆସିନି": 73638,
  "▁30": 5266,
  "▁benefici": 15707,
  "▁gratitude": 22105,
  "▁ପୋଟ": 43914,
  "▁ନୂଆଦିଲ୍ଲୀସ୍ଥିତ": 55883,
  "▁ଆଣିଛି।": 42327,
  "▁ପାଇଲୁ": 58245,
  "▁Oct": 6636,
  "କଳ": 9496,
  "▁ଦେଖଣା": 9844,
  "▁ଚାଷୀମାନେ": 17979,
  "େଙ୍କାନାଳ": 5780,
  "▁engineering": 36430,
  "ଫଟା": 56439,
  "▁ଫ୍ରେଣ୍ଡ": 30034,
  "▁ଚଳାଉଛନ୍ତି": 50408,
  "▁-ମେଣ୍ଢାଟାଲ": 51226,
  "▁ଓ୍ୱ": 34921,
  "life": 57517,
  "ili": 24827,
  "▁Greeks": 60517,
  "▁୧୨୨": 32606,
  "▁knock": 33216,
  "▁କାରଖାନାରେ": 27502,
  "▁କୈଫ": 41574,
  "▁ମୋଟରସାଇକେଲ୍‌": 46711,
  "▁Jo": 49282,
  "▁ଯୁପି": 14986,
  "ମୀକ୍ଷା": 68245,
  "▁journalist": 31756,
  "▁ଖଟା": 37696,
  "▁adequ": 7069,
  "▁\"ତା'": 67913,
  "UR": 6903,
  "▁କ୍ରିକେଟର": 14488,
  "▁ସାଓ": 53249,
  "▁ଦିଗରୁ": 23633,
  "▁ଚୋରାରେ": 51333,
  "▁ସ୍ବାମୀ": 19552,
  "▁ଧୱନ": 43710,
  "▁ମ୍ଯୁଜିକ": 49647,
  "▁ସାଧାର...": 66473,
  "▁ନିର୍ବିଶେଷରେ": 35911,
  "▁ଖେଳାଳିଙ୍କୁ": 19906,
  "▁ଏସ୍‌ବିଆଇ": 36345,
  "▁ତ": 1105,
  "▁suffer": 10477,
  "ଂଚଳରେ": 28574,
  ".com": 19732,
  "olitan": 34970,
  "▁negotiation.": 43018,
  "▁ଆନୁକୁଲ୍ଯରେ": 48764,
  "୨": 642,
  "▁ଅନଗୁଳ": 14094,
  "▁କଳାଟଙ୍କା": 46756,
  "▁conj": 19451,
  "▁ଗୁଡ": 22376,
  "ool": 6426,
  "▁ଶତ୍ରୁତା": 40122,
  "▁ଗୁଜୁରା": 11444,
  "▁ବେଙ୍ଗା": 13810,
  "ଯାପିତ": 19174,
  "▁man": 1698,
  "▁ଆଫ୍ରିକ": 33828,
  "▁efforts": 4109,
  "▁minds": 22430,
  "▁୧୯୧୨": 72300,
  "▁Countries": 32968,
  "nam": 14301,
  "▁ପୁରୀ(": 45682,
  "▁merch": 47058,
  "▁Angela": 63551,
  "▁କିସ୍‌...": 49816,
  "/୨୦୧୮(ଓଡିଆ": 72506,
  "▁reconsid": 21026,
  "▁ସ୍ଥଳୀ": 31944,
  "▁ଇତ୍ଯାଦିକୁ": 74225,
  "▁ହୋମ୍‌": 33705,
  "▁ଅସୁସ୍ଥ": 8383,
  "ଯେ": 11020,
  "▁transport,": 11646,
  "▁ଖୋଜିବାରେ": 54693,
  "ମାନରେ": 63595,
  "▁B4-0": 53639,
  "ୀଣ": 19128,
  "-product": 32292,
  "▁produ": 1989,
  "▁Financial": 10460,
  "▁ticket": 32305,
  "▁President,": 1519,
  "▁ସ୍କୁଲର": 14720,
  "ଡି.ସି": 46140,
  "▁disgust": 53553,
  "▁ପର୍ଯ୍ଯାଯର": 48104,
  "▁developments.": 24812,
  "▁difficulties.": 22271,
  "▁ଖୁସିର": 17463,
  "▁ସୁସମାଗ୍ଭର": 23582,
  "▁ଚାଉଳିଆ": 57717,
  "▁ଇଣ୍ଡିଆନ୍": 29623,
  "ଣ୍ଠି": 8166,
  "૸": 535,
  "▁problem": 1974,
  "▁ସମାନେେ": 16793,
  "▁elections.": 14119,
  "ାଉଥିଲେ": 31977,
  "▁ଜୀବନ।": 40499,
  "▁ଏତଲାରେ": 66054,
  "▁,ତୁରନ୍ତ": 64210,
  "stig": 21330,
  "▁publicity": 36907,
  "▁ବିକାରଗ୍ରସ୍ତ": 46714,
  "▁ଭଲି": 67836,
  "▁strength,": 51466,
  "▁cynical": 37549,
  "▁comfortable": 47609,
  "▁ବଳଯ": 27758,
  "▁separately": 33457,
  "▁ସହରରେ": 5995,
  "▁onto": 19020,
  "▁...": 5956,
  "▁Treaty.": 8838,
  "▁misg": 36850,
  "▁warrants": 47878,
  "-Matth": 53333,
  "▁ଆସିପାରନ୍ତି": 73183,
  "ଜ୍ଜା": 25729,
  "▁ଠିକ୍‌ଠା": 62886,
  "▁refuge": 6676,
  "▁reconfirm": 62563,
  "▁Prog": 7190,
  "▁Azerbaijan": 30868,
  "▁tendering": 52145,
  ":୫୫": 67390,
  "▁ତା’ପରେ…": 39628,
  "▁ଶ୍ରେଣୀ/": 70065,
  "▁Workers": 29834,
  "▁backwards": 37029,
  "/୧୫": 46126,
  "▁discourse": 63647,
  "▁station,": 73123,
  "▁observ": 8614,
  "▁ଥରପାଇଁ": 71177,
  "▁(ଓ": 11740,
  "▁Ice": 21331,
  "▁ବଢ଼ିଥାଏ।": 49487,
  "▁implications.": 44757,
  "କିଲୋମିଟର": 34740,
  "▁ଦରକାର:": 71584,
  "i.e.": 13058,
  "▁ଜେଟଲୀଙ୍କ": 59085,
  "▁spent": 9148,
  "▁Christmas.": 69118,
  "▁revised.": 53871,
  "ାର୍ଟସଆ": 68600,
  "▁strengthened.": 27760,
  "▁କାହାଣୀ।": 55703,
  "▁Napolitan": 40136,
  "▁keyboard": 31897,
  "▁Specific": 50874,
  "akers": 72672,
  "▁ନିଆଯାଏ": 56693,
  "ordinary": 59976,
  "▁0": 5744,
  "▁combine": 20833,
  "▁ଛାଇରେ": 74778,
  "▁କାଦ": 32411,
  "▁ରହିବ": 4638,
  "▁କରାଇପାରିବେ": 74191,
  "ଚଳ": 4225,
  "▁ଶିକ୍ଷକଙ୍କୁ": 19865,
  "ରା!": 37866,
  "▁ଈ": 6598,
  "▁ethics": 33257,
  "emic": 12630,
  "▁ବିଭାଗ,": 11658,
  "ମାନଙ୍କଠାରୁ": 24910,
  "ବ୍ଯ": 3168,
  "▁pun": 9762,
  "▁weakened": 32695,
  "▁ନିରୀକ୍ଷା": 50866,
  "▁ସାମ୍ନାକୁ": 6951,
  "ଥିଲା,": 8961,
  "▁ଓଡିଶାକୁ": 17309,
  "ଚାଲ": 25959,
  "▁ଫୁଲ": 6098,
  "▁ସମସ୍ଯ": 5581,
  "▁ଅଧିବେଶନକୁ": 69407,
  "▁Ve": 37723,
  "▁-ମେଣ୍ଢା": 51095,
  "-୨୯": 52304,
  "▁ଉତ୍ପୀଡ଼ନ": 20296,
  "▁Request": 61948,
  "▁ଫିଟ": 17819,
  "▁scand": 12831,
  "▁ଭରପୂର": 23241,
  "▁ଜ୍ୱଳନ୍ତ": 32358,
  "▁Group": 2909,
  "▁ଶୁଭୁ": 39362,
  "▁boast": 44857,
  "▁ପରସ୍ତ": 74948,
  "େଟ": 1745,
  "▁44,": 64785,
  "▁foundations": 15525,
  "▁ଯନ୍ତ୍ରଣାର": 56610,
  "▁ଉଭଯଙ୍କ": 13903,
  "▁incentives.": 57437,
  "▁reacting": 43968,
  "▁ଦଣ୍ଡନୀଯ": 63406,
  "▁ସେପ୍ଟେମ୍ବର": 6034,
  "▁ରାସାଯନିକ": 17073,
  "▁(୧୯୮୬)": 67394,
  "ସମ୍ବଲପୁର": 50467,
  "▁ସହସ୍ରା": 63607,
  "▁ବ୍ଯାଖ୍ଯା": 35535,
  "▁ସଂକୁଚିତ": 67789,
  "▁extensive": 11596,
  "▁ପକାଇଲେ।": 68732,
  "▁ହଣ୍ଡ": 63582,
  "▁ଜେଡିଏସ୍": 64495,
  "▁ପାରିଲାନି": 42211,
  "▁ଧମକ": 7780,
  "ସଭାରୁ": 62690,
  "▁ନିଗମ(ଏଲ୍.ଆଇ.ସି)ର": 62416,
  "▁ଦୁଇମାସ": 42820,
  "▁collective": 10102,
  "▁କମ୍ପାନୀରେ": 28117,
  "▁ଉଠାଇବାକୁ": 29070,
  "▁ଦେଖାଦେଇଛି": 20473,
  "▁ମଦ୍ଯପାନ": 25150,
  "▁କାହାଣୀକୁ": 30338,
  "▁ଶୁଭେନ୍ଦୁ": 44534,
  "▁କୁମ": 69981,
  "ά": 311,
  "▁incomplete": 33045,
  "jer": 35894,
  "▁opaque": 72164,
  "▁ଲୋଡ଼ିଲେ": 60222,
  "lick": 42302,
  "▁ବଜାରରୁ": 29665,
  "▁softwareର": 32456,
  "▁ଯଦିଓ": 12349,
  "▁ମସ୍ତିଷ୍କରେ": 44995,
  "▁ଦୂରଦୃଷ୍ଟି": 47410,
  "▁ହ୍ରଦର": 65212,
  "▁(debate)": 15966,
  "▁ସଂକୀର୍ଣ୍ଣ": 49757,
  "ତାବକ": 50832,
  "▁ପାଳନ": 4099,
  "କ୍‌ର": 25751,
  "଎": 557,
  "ov": 2509,
  "▁ସକଳ": 17021,
  "▁,ସଜାଗ": 21084,
  "▁misunderstand": 29228,
  "▁Kingdom.": 27251,
  "iots": 55810,
  "▁extracted": 61093,
  "▁remark.": 63418,
  "ଲୋଡ୍": 19015,
  "uble": 20579,
  "▁ଚାଲିଥିଲେ": 42527,
  "▁ପକ": 3528,
  "ଯାଇଛନ୍ତି।": 31981,
  "▁ଚକଲେଟ୍‌": 59018,
  "▁audio-visual": 69903,
  "▁ସମ୍ପୃକ୍ତି": 33066,
  "▁sevent": 49568,
  "▁two,": 35682,
  "▁ultimate": 15370,
  "▁ଉଚ୍ଚେଦ": 53489,
  "▁cuts": 14421,
  "ଶ୍ରମ": 7531,
  "▁same.": 23158,
  "▁ସମ୍ବଳ": 11955,
  "▁ପ୍ରଭାବିତ,": 36407,
  "▁ଖାଦ୍ଯରେ": 17199,
  "▁ଭଏସ୍": 46986,
  "▁name": 4153,
  "ପ୍ରତ୍ଯ": 47383,
  "▁allowed.": 56085,
  "ଯୁଟି": 33864,
  "▁about:": 69269,
  "ɕ": 261,
  "▁21st,": 45852,
  "▁ଶୋଇବା": 10117,
  "▁କିଲୋ": 5368,
  "▁researchers.": 65083,
  "▁dioxin": 38786,
  "hic": 7216,
  "▁Caspian": 57034,
  "riend": 6110,
  "ep": 1915,
  "▁retained.": 55732,
  "▁କିଏ": 3106,
  "▁intergroup": 60454,
  "▁ଗ୍ରୁପ": 19607,
  "▁distortion": 23758,
  "▁ପବ୍ଲି": 13360,
  "▁ଘଂଟାର": 56396,
  "▁ରିତି": 60957,
  "▁ମଫସଲ": 55374,
  "▁ସାହିତ୍ଯ]": 30726,
  "ither,": 27571,
  "▁TF": 64437,
  "ିବାଯ": 34298,
  "▁Occup": 65542,
  "▁ଭାରତବାଣୀ": 66545,
  "▁clarifies": 44281,
  "ାର୍କ": 16251,
  "▁ବାଜିବା": 55705,
  "(ଡି.ଏନ୍‌.ଏ)-": 67015,
  "▁states.": 15158,
  "▁imagination": 46317,
  "▁ଚିନ୍ତାଧାରାରେ": 67295,
  "ମିତ୍ରା": 26873,
  "▁ପାଶ୍ୱ": 28140,
  "▁him.": 18303,
  "▁Stock": 15788,
  "▁ଗୋସାଇଁ": 58445,
  "▁ମୁହା": 55204,
  "▁ମହିଳା।": 46504,
  "▁ସାଂସଦମାନଙ୍କ": 70428,
  "er.": 5029,
  "▁ସ୍କିଲ୍": 61949,
  "▁ବୁଣାକାର": 31802,
  "▁ସମ୍ରା": 46019,
  "▁‘ୱ": 74504,
  "ତକୁ": 17683,
  "▁ପେଣ୍ଟ": 46172,
  "▁buying": 25090,
  "▁discriminatory": 26917,
  "ମାଳି": 23944,
  "▁McMillan-S": 57962,
  "▁pipeline": 21174,
  "▁wiped": 49547,
  "▁Jar": 24938,
  "ଜ୍‌": 3895,
  "inges": 74441,
  "▁ନିର୍ଦ୍ଦେଶିକା": 32936,
  "ଶୈଳୀରେ": 41860,
  "▁ଅସମ୍ଭବ": 16488,
  "▁ବ୍ଯାଣ୍ଡ": 54842,
  "▁ବ୍ଯକ୍ତିଗତ": 7420,
  "▁ଥିବାର": 21065,
  "▁suspects": 47872,
  "▁afflicting": 73016,
  "▁especially": 3601,
  "▁ଡାକେ": 72745,
  "▁୩୨": 8294,
  "▁ଏକାଥରେ": 61463,
  "▁Andean": 49143,
  "▁matter.": 8038,
  "▁letter,": 45346,
  "▁divergences": 60341,
  "ମଣ୍ଡପ": 33513,
  "ଶ୍ଚି": 37517,
  "▁କୋଦଳା": 64959,
  "ଲ୍‌ସ": 48574,
  "ଥିଲ।": 46139,
  "▁taken,": 19492,
  "ିଲି": 2870,
  "▁ଉନ୍ମୋଚନ": 14151,
  "▁ହୀରାକୁଦରେ": 48797,
  "▁tolerance.": 60283,
  "▁structurally": 64799,
  "▁ସର୍ବୋକ": 72329,
  "▁ଡରକୁରା": 21518,
  "▁ବିଧାନସଭା": 5268,
  "▁ଖୋଜୁଚି": 21537,
  "▁ଅତିଥିଙ୍କ": 57627,
  "▁lin": 44118,
  "▁ଫଟୋର": 61559,
  "ন": 494,
  "▁ଅସ୍ଵା": 72649,
  "▁additives,": 73890,
  "▁କରିଦେଇଛନ୍ତି।": 31491,
  "▁grain": 43631,
  "▁ଓଜ": 24169,
  "▁ଆପଣାଇବାକୁ": 71497,
  "▁adm": 3864,
  "▁brief,": 39227,
  "▁book": 13078,
  "▁sympathise": 51829,
  "▁ବ୍ଲକସ୍ତରୀଯ": 46904,
  "▁ହୁଣ୍ଡିରୁ": 54953,
  "ଧିଆ": 36654,
  "▁ଟ୍ରା": 4941,
  "ବାର୍ଷିକୀ": 23599,
  ",ଏହି": 18390,
  "▁ପ୍ରଦ୍ଯୁମ୍ନ": 35580,
  "▁ମୁତାବକ": 10310,
  "▁year;": 57569,
  "▁ପୋତା": 38159,
  "ାରୂ": 39506,
  "▁କାର୍ଯ୍ଯଧାରା": 51265,
  "▁temptation": 32051,
  "▁distribute": 36923,
  "▁ବତୀ": 51235,
  "▁କିନ୍ତୁ": 2101,
  "▁ବହି,": 49614,
  "▁ତୃତୀଯରେ": 68286,
  "▁obv": 24830,
  "▁rarely": 31370,
  "▁ପ୍ରତିଯୋଗୀତାରେ": 50380,
  "ତମ": 3790,
  "▁(୧୯୯": 14146,
  "ତ୍ତ୍ୱିକ": 47158,
  "▁ଓଡ଼ିଶାଲାଇ": 19462,
  "▁monopol": 17195,
  "ଦେ୍ର": 16185,
  "▁ରୁଆ": 50040,
  "▁self-hand": 58811,
  "▁Barcelona": 13660,
  "▁ଖାଉଟି": 17723,
  "▁କଲେକ୍ସନ": 47385,
  "▁Subsid": 53726,
  "ଭେନ୍‌": 45914,
  "▁ଶୋଇଛି": 57624,
  "▁cuts.": 54684,
  "▁ହୋଇଥାଉ": 65598,
  "adm": 17264,
  "▁Organisation.": 30205,
  "▁ବିନ୍": 56025,
  "▁Sturd": 54249,
  "▁ଜୋହ": 72832,
  "ବିବାହ": 47227,
  "▁Quartet,": 71721,
  "େଶ୍ୱର,": 37799,
  "୪୬": 49856,
  "▁ରେନ": 73617,
  "▁consistent": 8938,
  "ଅନ୍ଯ": 45632,
  "▁ସ୍ଵଭାବ": 51296,
  "▁Maij-Weggen": 56419,
  "▁ଦ୍ଵାଦଶ": 58075,
  "▁seafarer": 65234,
  "▁ସଂଗୃହୀତ": 37813,
  "▁died": 19946,
  "▁ଜିତିଥିଲେ": 50397,
  "▁ମାଓବାଦୀମାନଙ୍କ": 9943,
  "▁Aht": 55623,
  "▁୨୧୩": 42916,
  "▁foresee": 24400,
  "▁ଚିରି": 32428,
  "▁ସ୍ୱର୍ଗଦ୍ୱାରରେ": 37483,
  "▁ଅନ୍ଯପକ୍ଷରେ,": 56350,
  "▁“ଠିକ୍": 65361,
  "▁ଛୁଇଁବାକୁ": 56534,
  "4,": 19205,
  "▁ହୋଣ୍ଡା": 33922,
  "▁ସୈନିକମାନଙ୍କୁ": 73378,
  "▁ପ୍ରସଙ୍ଗରେ:": 70844,
  "ସ୍ଥିତ": 3464,
  "▁repair": 22424,
  "▁ପ୍ରଯୁକ୍ତ": 21920,
  "▁opportune": 49748,
  "ଦ୍ଦୁ": 33537,
  "▁kind,": 27977,
  "▁model,": 19974,
  "some": 34629,
  "▁ନିର୍ମିତ": 8736,
  "▁visa.": 63095,
  "▁ବିନ": 11962,
  "▁ପ୍ରସ୍ତ": 2275,
  "▁କ୍": 1739,
  "▁revolution.": 57229,
  "▁ସଂଶ୍": 41701,
  "▁ବିପଜ୍ଜନକ": 43241,
  "▁participate.": 45328,
  "▁unemployment.": 17910,
  "▁ଶଶୀ": 23923,
  "▁flexic": 43741,
  "▁blackmail": 28974,
  "▁ବୁଝିପାରୁ": 31893,
  "▁ଧାନକଟା": 59747,
  "ଏଫ୍‌)": 64052,
  "▁ଅଂକୁ": 67831,
  "▁consultative": 38674,
  "▁Parliamentary": 13373,
  "▁SamajaLive.": 57004,
  "iden": 69226,
  "▁ଅବିନାଶ": 37755,
  "▁ଓଡ଼ିଆର": 67903,
  "-୫୦": 58215,
  "ommend": 4282,
  "▁(Edit)": 10259,
  "ଗୋପାଳ": 21319,
  "▁development.": 7343,
  "▁ଟ୍ରେନ୍‌କୁ": 64024,
  "▁Justice,": 24499,
  "▁ଅମିତ": 7759,
  "କ୍ରମିତ": 20178,
  "▁sentiment": 47164,
  "ୁଦ୍ର": 4131,
  "୨ଟି": 24217,
  "▁formalities": 53535,
  "▁ଆମ୍ଭମାନେେ": 56713,
  "ଥେ": 26744,
  "▁ବନ୍ଦ": 2455,
  "▁countryside": 23748,
  "ଏନ୍‌": 12025,
  "▁convince": 16536,
  "▁ପ୍ରତାରିତ": 52982,
  "▁tradition,": 43975,
  "▁ବହିକୁ": 74168,
  "ମୌ": 41609,
  "▁ବୃଥା": 57104,
  "▁ଜିଲ୍ଲାକୁ…": 55226,
  "▁organisms,": 64648,
  "ht": 36042,
  "▁ସଙ୍ଗୀତଜ୍ଞ": 64300,
  "▁ALDE": 16774,
  "ems": 48560,
  "▁immoral": 57596,
  "▁injured.": 61825,
  "▁surprise.": 72076,
  "▁brick": 70689,
  "▁24.": 66315,
  "▁କ୍ରିଷ୍ଣା": 30064,
  "▁ସାଙ୍ଗସାଥୀଙ୍କ": 73924,
  "▁endang": 19615,
  "▁(ଇଂରାଜୀ": 20144,
  "▁ଦଳୀଯ": 8668,
  "▁ବୁଝୁ": 44844,
  "▁କେବେବି": 24601,
  "▁ରବିଶଙ୍କର": 27585,
  "ଯୁଦ୍ଧ": 20316,
  "▁excellence": 31358,
  "▁ସୋନାଲି": 25834,
  "ino.": 57055,
  "▁ଅଖ୍‌": 62357,
  "▁କଲୋନୀ": 23898,
  "▁ଭାଦ୍ରବ": 43260,
  "▁violently": 73679,
  "▁ଦାଉଦଙ୍କର": 53548,
  "▁Ten": 37567,
  "▁ହାତରେ": 5894,
  "Œ": 235,
  "▁ଫୋନର": 17573,
  "-S": 10887,
  "▁Mobile": 33687,
  "▁ଜଗନ୍ନାଥପୁର": 63983,
  "▁ଖୋଦିତ": 58546,
  "▁ସନ୍ଦେହଜନକ": 25426,
  "▁Apr": 4827,
  "▁ଛାତ୍ରଛାତ୍ରୀ": 4526,
  "▁firms.": 45816,
  "▁ଝାଟିମାଟି": 62405,
  "▁radiation": 32622,
  "▁applies": 8296,
  "▁ପ୍ରଶ୍": 29976,
  "▁କରିଥ#ଲୋ": 42267,
  "▁Public": 8937,
  "▁Opp": 58941,
  "ଲିନ୍": 24152,
  "▁ଈଶା": 34109,
  "▁ମାଗିଥିଲେ": 39409,
  "▁ପୋଛ": 47268,
  "▁Russia,": 12194,
  "▁ଲିଗ୍‌ର": 70581,
  "▁ଫେରିଛନ୍ତି": 40111,
  "▁ପାଦକୁ": 50073,
  "▁September": 2237,
  "▁ପ୍ରାଇଭେଟ୍": 37771,
  "▁depths": 72081,
  "ଳି": 1327,
  "ଜୀବି": 21429,
  "▁ancest": 74007,
  "▁୨୦୦ରୁ": 35368,
  "▁ନନ୍ଦା": 50627,
  "▁କ୍ଷୁଧା": 42780,
  "▁ଭାବବିହ୍ୱଳ": 62694,
  "▁blood": 12447,
  "▁Copenhagen.": 32200,
  "▁artistic": 37130,
  "▁ନିଟ୍‌": 50018,
  "▁ଓଭାରି": 68004,
  "▁ସେଇ": 5846,
  "▁sitting": 7119,
  "▁interv": 10268,
  "▁evidence.": 42143,
  "▁ମନ୍ତ୍ର": 5929,
  "▁step-by-step": 65681,
  "▁Am": 2602,
  "▁enlargement": 5423,
  "ଏଲ୍": 17544,
  "▁ଷ୍ଟୋନ୍‌": 70523,
  "▁deduct": 42857,
  "▁“ମହାରାଜ!": 64677,
  "▁ପରେ…": 15629,
  "▁Expl": 64578,
  "▁ମେଷ:": 9672,
  "▁untr": 47651,
  "▁ଦୀ": 3077,
  "▁this;": 42603,
  "▁freedom": 3378,
  "▁୮୭": 23498,
  "।୧୨:": 21495,
  "▁Democrats": 7189,
  "▁ତକ": 71825,
  "▁ନେଲି": 73630,
  "▁ଖେଳ": 2878,
  "▁କେନ୍ଦ୍ରାପଡ଼ାର": 51642,
  "rine": 30120,
  "▁ଜଣିଆ": 11778,
  "▁pat": 5108,
  "▁ଦଇତାପତିଙ୍କ": 40716,
  "▁attracts": 72441,
  "ୖ": 629,
  "▁dub": 27214,
  "▁ପଦେ": 28205,
  "▁savings,": 49638,
  "▁ପ୍ରତିଦ୍ୱନ୍ଦ୍ୱିତା": 43781,
  "▁ଝାଉଁ": 30353,
  "▁Michel,": 54938,
  "▁ଗୁଳୁଗୁଳି": 49538,
  "▁Till": 49861,
  "▁କିମିଆ": 63137,
  "▁ମନେପ": 19114,
  "ଖଣ୍ଡର": 20011,
  "racted": 46891,
  "▁‘b": 52415,
  "▁ଆଶ୍ରଯସ୍ଥଳ": 38617,
  "▁total,": 55711,
  "▁ବୋରିଗୁମ୍": 57724,
  "▁ceased": 47291,
  "▁Middle": 8124,
  "▁ଶୋଇଥିଲେ।": 70082,
  "▁tremendous": 20606,
  "▁ରୁଦ୍ର": 27328,
  "▁ମୋଟେ": 33157,
  "▁ଶଶୀ…": 47326,
  "▁ପୋଷାକ,": 57876,
  "▁ଏହାଛଡା": 17535,
  "▁metres": 33311,
  "ମାଂସ": 35986,
  "▁why.": 41881,
  "▁ପକାଇଥିବା": 52302,
  "▁Ecol": 66751,
  "▁ଅଫିସ": 5217,
  "▁ଗ୍ରାମାଞ୍ଚଳରେ": 25586,
  "▁ପକାଇଥାଏ।": 45087,
  "▁କଲେଜ,": 28077,
  "▁ମନିଷ": 74293,
  "▁its": 1562,
  "▁ୁ": 72634,
  "ଏଫ୍‌ସି": 69775,
  "▁ଜନମ": 42309,
  "ଶେଖରଙ୍କ": 61114,
  "▁ବୁଝିବାର": 73690,
  "▁ଉତ୍ପାଦନର": 58544,
  "▁ରିମା": 18363,
  "▁Presidency": 3457,
  "▁ବୁଲିବାକୁ": 19758,
  "ability": 2951,
  "▁ଇଂଟର": 17540,
  "aria": 30293,
  "▁ନାରୀଙ୍କ": 66636,
  "ସାହିତ୍ଯ": 22404,
  "И": 345,
  "▁ଉପୁ": 10298,
  "▁ଭୋଜ": 7162,
  "▁ଗ୍ରାମପଞ୍ଚ": 26943,
  "▁satur": 74913,
  "ଲାମ": 15797,
  "▁ଖାଆନ୍ତୁ": 11004,
  "▁ବରିଷ୍ଟ": 70414,
  "▁assist": 4328,
  "▁ମାଠ": 32826,
  "▁ଅଣନି": 40838,
  "▁ହସପିଟାଲରେ": 27277,
  "▁because": 1816,
  "▁ସାଧ୍ୱ": 60167,
  "▁still,": 27606,
  "▁।[୫]": 26313,
  "log": 48040,
  "▁ଖାମଖିଆଲି": 70649,
  "▁113": 63094,
  "ଦେଶକୁ": 30716,
  "▁man,": 38738,
  "▁କର୍ମର": 47257,
  "oman": 44921,
  "▁ମସାଜ୍‌": 73909,
  "s.": 1241,
  "▁ଦବା": 65893,
  "▁ପକ୍ଷର": 36400,
  "▁କ୍ରିମି": 49474,
  "▁complemented": 52656,
  "▁'social": 64065,
  "gents": 68137,
  "▁supported.": 30228,
  "▁entity,": 66566,
  "▁Proposals": 69505,
  "▁କରୁଛି,": 22444,
  "ଯାଯୀ": 4097,
  "▁ଏସିଡ୍‌": 31139,
  "ଟେରିଆ": 72730,
  "▁precautions": 46098,
  "▁eurozone.": 59847,
  "▁ଋତୁସ୍ରାବ": 20794,
  "▁ଚ୍ଯାନେଲ": 19913,
  "▁ମିଶାଇଲେ": 59983,
  "▁ସନ୍ତାନମାନେ": 72848,
  "▁ଗ୍ରାମ୍ଯ": 12076,
  "SF": 42179,
  "▁Therefore": 5148,
  "▁ଏଭ": 70287,
  "ִ": 385,
  "▁ensured": 17859,
  "▁ସଂଖ୍ଯାଗରିଷ୍ଠତା": 68110,
  "▁discouraging": 59864,
  "wreck": 58680,
  "▁ଇଲେକ୍ଟ୍ରୋନିକ୍ସ": 21872,
  "▁profitable": 27342,
  "▁ଅସୁସ୍ଥ,": 47988,
  "▁ବାହାରିଛି": 48610,
  "thal": 35718,
  "▁Possel": 23899,
  "▁ପାର୍ଲିଆ": 67593,
  "▁horrend": 42557,
  "▁Easy-to-Read": 26606,
  "▁ହେଭିୱେଟ": 73476,
  "ଆଳ": 47502,
  "▁captured": 70939,
  "▁deli": 9709,
  "▁mouth": 27016,
  "▁ସମ୍ମାନାର୍ଥେ": 74602,
  "▁park": 35088,
  "▁varying": 32911,
  "▁first,": 16576,
  "ways": 3560,
  "▁ଶୁଣାଣିକୁ": 62572,
  "ଙ୍କିଙ୍ଗ୍‌": 66662,
  "▁ସ୍କୁଲରେ": 9289,
  "୍‌": 1238,
  "ଏକ": 12199,
  "▁କାର୍ଯ୍ଯବନ୍ଦ": 17400,
  "▁ଖଣିରେ": 37821,
  "ୈତ": 46597,
  "iarity": 50001,
  "▁lat": 6310,
  "▁ମଡେଲ୍‌": 38048,
  "▁କମ୍ପାନୀ,": 56920,
  "▁ବିଦ୍ଯ": 14410,
  "▁portal": 19539,
  "▁ଯେହେତୁ": 18424,
  "ନେଟ": 21812,
  "-ପୂର୍ବ": 25767,
  "▁steps,": 43416,
  "▁ଫାଙ୍କ": 51473,
  "ଲୁ।": 42902,
  "▁reciprocity.": 66399,
  "▁accounts.": 38160,
  "▁ବି‌": 68881,
  "URL": 7233,
  "▁ଘୁଷୁରି": 46707,
  "▁relation": 5067,
  "▁obsolete": 31248,
  "▁complex.": 42641,
  "-1999": 58639,
  "▁ମର୍": 15186,
  "▁ମରିବା": 32244,
  "▁Committee,": 14478,
  "▁ନାମକରଣ": 21186,
  "▁ପୁଷ୍ଟି": 23927,
  "▁ସମନ୍ବଯ": 46581,
  "▁Languages": 64927,
  "▁କହିଥିଲ": 32374,
  "▁resistance,": 62607,
  "କ୍ରୀଡ଼ା": 37001,
  "ଗଡ଼ାର": 64791,
  "ସୁତ": 62801,
  "iox": 15962,
  "▁ଜାଣିହେବ": 62817,
  "wood": 45631,
  "ନ୍ଦ୍ରା": 17881,
  "ଙ୍ଗା": 2906,
  "ୁଲାରେ": 44829,
  "▁କ୍ଷୀଣ": 32182,
  "▁Cohn": 26955,
  "ଷ୍ଟୀଯ": 28034,
  "▁ହେମ": 25231,
  "▁ଗଜ": 6330,
  "▁ଚିତ୍ତର": 27679,
  "▁ସ୍ବରୂପ": 40546,
  "stitution": 4420,
  "▁ଚନ୍ଦ୍ରଶେଖରପୁର": 31446,
  "▁strive": 20645,
  "▁derogation": 23689,
  "▁over-ex": 72114,
  "ପଥେ": 65692,
  "▁ଧାର୍ଯ୍ଯ": 12137,
  "▁ମଣ୍ଡି": 27815,
  "▁ଅଣଦେଖା": 16760,
  "▁sitting.": 29362,
  "▁expressions": 34719,
  "ସେମ୍ବର": 29276,
  "▁black": 12867,
  "▁bra": 18636,
  "▁ମୁଣ୍ଡିଆ": 35195,
  "▁ଜଣାପଡେ": 44044,
  "▁expires": 44497,
  "▁ବଦଳରେ": 6977,
  "▁ବନାଞ୍ଚଳ": 45367,
  "▁ଦେଶ:": 58279,
  "▁trading,": 58775,
  "▁ଏମଏମ": 62005,
  "ଖେଳି": 39033,
  "▁ଘୋଷଣା": 3255,
  "▁suppression": 37726,
  "▁Bah": 39051,
  "▁forest": 8279,
  "▁ul": 59901,
  "▁ବିଚାରର": 69701,
  "ସିଟ": 65915,
  "▁inflation,": 41677,
  "▁ଚାପାରେ": 16510,
  "▁recommends": 25552,
  ":14": 34113,
  "▁pornography": 32308,
  "▁heading.": 55708,
  "[ସମ୍ପାଦନା]": 3704,
  "▁ବ୍ଯାନରରେ": 44215,
  "▁ଫଳି": 72221,
  "▁ବୃନ୍ଦାବ": 67090,
  "▁Galileo": 21557,
  "▁ସର୍ବଶକ୍ତି": 38667,
  "▁ସର୍ତ": 58756,
  "▁waters.": 28447,
  "▁labelling.": 36927,
  "▁Timor": 26266,
  "ne,": 37079,
  "ର୍‍": 46734,
  "୩]": 11205,
  "▁Invest": 13615,
  "ଢ଼ିର": 38581,
  "▁friends": 12671,
  "▁ମନୋଭାବକୁ": 61309,
  "ER": 29135,
  "▁anti-c": 50550,
  "▁country,": 6318,
  "ଭର୍ସ": 33578,
  "▁ଭୂ": 3145,
  "▁poll": 6717,
  "▁ହ୍ୱାଟସଆପ୍": 37671,
  "▁Reding": 34518,
  "▁୨୬/୧୧": 45088,
  "ସମସ୍ତ": 39383,
  "▁ଦାବିରେ": 8387,
  "▁ମଦଭାଟିରୁ": 53963,
  "▁signalled": 61702,
  "▁ହାଇଦ୍ରାବାଦ,": 62029,
  "▁ଡେଭିଡ୍‌": 65510,
  "▁କରେ,": 16388,
  "▁Vall": 47022,
  "▁କେନ୍ଦ୍ରମନ୍ତ୍ରୀଙ୍କ": 30674,
  "▁କାଉ,": 56141,
  "▁2": 1250,
  "▁different": 2983,
  "ixed": 12466,
  "ମୂର୍ତି": 43257,
  "▁ଫାଇଦାରେ": 69316,
  "▁ଦର୍ଶକମାନଙ୍କୁ": 70481,
  "▁ଆସିଛନ୍ତି": 13126,
  "66": 33006,
  "▁ଯାତ୍ରୀଙ୍କର": 60229,
  "▁ଅଙ୍ଗନୱାଡି": 25740,
  "▁Yes": 58515,
  "▁ସୁସ୍ୱ": 40082,
  "▁sham": 37788,
  "▁ଜ୍ଞାନପୀଠ": 60230,
  "▁ଗୁରୁତ୍ୱପ...": 61981,
  "ª": 130,
  "▁ଚିକିତ୍ସାର": 48469,
  "▁police": 7854,
  "▁ଭାବିଲା": 38651,
  "▁ଡକା": 43712,
  "▁34": 10628,
  "▁scrutiny": 20351,
  "▁କମିଶନରେଟ": 26765,
  "Odisha": 42142,
  "▁ସଂନ୍ଧ୍ଯା": 52065,
  "▁୧୮ଟି": 29773,
  "▁ଗାନ୍ଧୀ,": 46431,
  "▁ବିନିମଯ,": 56383,
  "▁correct,": 33708,
  "▁rule,": 25862,
  "ିଲାତି": 29650,
  "▁sight.": 65470,
  ",୫୦୦": 26055,
  "▁କାଳୀ": 20994,
  "▁shortcomings": 16869,
  "▁ଶ୍ରୀଦେବୀଙ୍କର": 42055,
  "▁rules.": 11156,
  "▁deposits": 60581,
  "▁voiced": 29826,
  "▁fifth": 17954,
  "▁ଭୋଜନ": 8765,
  "▁କରନ୍ତୁ…": 22604,
  "▁ବିସିସିଆଇର": 48934,
  "▁ଚିକି": 23654,
  "▁୧୨୭": 49453,
  "▁ସମର୍ଥନ": 5936,
  "▁ଜନନୀ": 16146,
  "▁Oetting": 54245,
  "ice,": 48070,
  "▁ନିର୍ଭଯ": 36672,
  "änder": 57926,
  "▁influences": 51802,
  "▁seeking": 9069,
  "▁landmines": 55985,
  "▁involving": 8653,
  "କାଳି": 27329,
  "▁(A6-0": 42546,
  "▁୧୬,୧୭": 18245,
  "▁ସାଳନ୍ଦୀ": 57037,
  "▁କମଳା,": 71536,
  "▁ହେଉଛି,": 12852,
  "ଡ଼ିତ": 13114,
  "▁achieved.": 14458,
  "▁ସୂଚନା,": 29766,
  "▁ନୀରି": 38522,
  "▁ଜନପ୍ରିଯ": 52093,
  "▁iceberg": 61583,
  "▁ଅହେତୁକ": 29133,
  "▁କାରା": 67215,
  "▁ମୁରୁ": 40080,
  "▁ମହାପାତ୍ର,": 14288,
  "ଷ୍ଟୋ": 29146,
  "▁କିଣିଲା": 41106,
  "▁condition.": 51941,
  "ର୍ଘ": 4668,
  "ପ୍ରେମାନନ୍ଦ": 62263,
  "▁deception": 59179,
  "▁stra": 11479,
  "▁ଜଣାନାହିଁ": 26861,
  "▁ଖୋଜିବ": 64280,
  "▁ମୁଠି": 72224,
  "ାବାଲି": 61247,
  "▁ଅଦଳବଦଳ": 26179,
  "▁ta": 27686,
  "▁disarmament": 30517,
  "▁ପଟନାଯକ": 36805,
  "▁ସାବତ": 23684,
  "ଯାହାକି": 67402,
  "▁ଗୋଲମରିଚ": 30776,
  "▁ଅନୁପସ୍ଥିତ": 30554,
  "▁ତମ": 7686,
  "▁ଭୁବନେଶ୍ୱରର": 13043,
  "▁ଫ୍ଲାଇଟ୍": 56995,
  "▁ସର୍ବଶିକ୍ଷା": 41013,
  "tier": 57519,
  "ibly": 18117,
  "▁Institute": 18151,
  "▁political": 2014,
  "▁Southern": 22932,
  "▁ରାଜାମାନେ": 54816,
  "▁ବିଏସ": 14549,
  "▁ପ୍ରତିଶତରୁ": 25990,
  "▁“ମହାରାଜ,": 63818,
  "▁Győ": 72580,
  "୲": 652,
  "▁men,": 25354,
  "▁ନାନାଦି": 44671,
  "▁ଅଳଙ୍କାର,": 68371,
  "ସନ୍ତା": 40642,
  "▁Jens": 41625,
  "▁୧୮୩": 65384,
  "▁ମହାବିଦ୍ଯାଳଯରେ": 22150,
  "▁oriented": 57226,
  "କୀ": 9686,
  "▁(ସଂସ୍କୃତ": 46836,
  "▁୨୩୦": 45450,
  "▁ଦ୍ଵାରା": 5937,
  "▁ଲାଭଦାଯକ।": 46096,
  "ସିଟିରେ": 46615,
  "▁କ୍ଷତ୍ର": 54832,
  "▁ଅବସାଦଗ୍ରସ୍ତ": 67725,
  "list": 39426,
  "▁Prof": 25478,
  "ରୋ": 5384,
  "ଲତ": 8886,
  "riction": 73233,
  "▁constituents.": 73901,
  "▁ଯାଉଛି।": 13804,
  "▁ବିଶୃଙ୍ଖଳା": 24610,
  "▁ଆଯତ୍ତ": 23456,
  "▁ଏସଟି": 22859,
  "razil": 14524,
  "ଦାମ୍ବର": 34309,
  "▁ଅକ୍ଷାଂଶ": 46724,
  "▁American": 7362,
  "▁ସ୍ମିତ": 52764,
  "▁ୱିକେଟ୍": 26811,
  "▁ମେନକା": 55570,
  "▁daring": 65581,
  "▁ଅଗ୍ନିକାଣ୍ଡ,": 33564,
  "▁ଏପରି": 3172,
  "▁ମରି": 9147,
  "▁ଆପ୍ଯ": 66860,
  "teenth": 72768,
  "▁ମୋହି": 61663,
  "▁ଯିବାରେ": 57323,
  "▁distributing": 39869,
  "▁ଆତ୍ମସନ୍ତୋଷ": 67931,
  "▁eager": 32724,
  "way.": 24746,
  "▁forese": 16567,
  "▁2007-201": 44060,
  "▁ଫିତା": 69601,
  "▁ରୀଯା": 64432,
  "▁ବରକୁ": 65381,
  "ଶହ": 7907,
  "▁ବୃଦ୍ଧିର": 36617,
  "▁Stev": 46501,
  "bil": 74417,
  "▁include,": 36525,
  "▁reword": 63021,
  "▁ଆଡଭାଇଜ": 65426,
  "ବାହନ": 26036,
  "▁ପଳାଇ": 13576,
  "▁Fourthly,": 19542,
  "▁one.": 8579,
  "▁found.": 28653,
  "ାନୀଙ୍କ": 14737,
  "▁ଅତିରିକ୍ତ": 8069,
  "▁ପହଞ୍ଚିଲେ": 18343,
  "ଜୋର": 24084,
  "arliamentary": 32601,
  "▁ବିବୃତ୍ତି": 43746,
  "ୁବୁଡୁ": 45857,
  "▁ଟ୍ରାଙ୍କୁଲାଇଜ୍": 63519,
  "HARE": 25839,
  "▁ମୁଣ୍ଡବ୍ଯଥା": 73928,
  "ୁରା": 5115,
  "ators": 5385,
  "▁binding": 9932,
  "▁about": 1707,
  "▁referring": 12069,
  "▁Senegal": 43684,
  "▁human": 2109,
  "ଌ": 555,
  "▁ପର୍ଯ୍ଯନ୍ତ": 2727,
  "▁decision-m": 8340,
  "▁observed.": 40384,
  "oven": 42727,
  "▁G8": 26135,
  "ଲ,": 6444,
  "▁ଖୋଲାଖୋଲି": 22235,
  "▁desirable,": 49068,
  "▁ଗତିବି": 23257,
  "▁timel": 64282,
  "▁colleagues'": 74636,
  "fty": 56885,
  "▁ପୁରସ୍କାରକୁ": 74613,
  "▁Non-P": 44760,
  "▁insecurity.": 67723,
  "▁ସୁନାବେଡା": 72137,
  "isbon": 4043,
  "▁reintegr": 57238,
  "ର୍ତ୍ତୀ": 39842,
  "୍ନି": 6763,
  "▁ଶବ୍ଦର": 21224,
  "ries.": 62422,
  "▁biometric": 29324,
  "▁hydrogen": 40234,
  "▁forms,": 55869,
  "▁ଅର୍ଗାନାଇଜେ": 74365,
  "▁ସାଲା": 43399,
  "▁ହୋତା,": 68975,
  "ସ୍ପତି": 12059,
  "▁୭ବର୍ଷର": 69281,
  "▁?": 2008,
  "▁intrins": 39487,
  "▁ଏକବିଂଶ": 44241,
  "▁prices": 7585,
  "▁ଥରୁଟିଏ": 53370,
  "unting": 71079,
  "▁ଦେଲେ": 3169,
  "▁ଆଖିବୁ": 33372,
  "▁secondary": 21129,
  "▁so?": 45779,
  "▁ଆମ୍ବୁଲାନ୍ସକୁ": 53159,
  "y's": 31237,
  "▁Washington.": 66726,
  "▁୨୨ରେ": 21093,
  "▁lowest": 20113,
  "▁community": 5622,
  "▁Qat": 71967,
  "▁ବେଙ୍ଗାଲୁରୁରେ": 43347,
  "▁ବେଶ,": 73224,
  "▁homosexuality": 67405,
  "▁ଭୁଲିଗଲେ": 46442,
  "ପୁରଣ": 47938,
  "▁ଉଠି": 6516,
  "χ": 337,
  "▁କଡ଼ରେ": 22165,
  "▁ପରିତ୍ରାଣ": 22473,
  "▁ନିର୍ଣ୍ଣାଯକ": 28728,
  "▁multipl": 34325,
  "▁ଚନ୍ଦନ,": 71273,
  "▁Strategy": 11073,
  "▁ଇଚ୍ଛା,": 66643,
  "▁ଭଜନ,": 58603,
  "▁André-L": 73043,
  "ure,": 4523,
  "▁Sar": 28099,
  "▁den": 6617,
  "ଯର୍ସ": 41962,
  "▁ରୋଜଭ୍ଯା": 57425,
  "▁ଲକ୍ଷ୍ମୀଦତ୍ତ": 65430,
  "▁ହେବାକୁ…": 72786,
  "ouse": 2562,
  "▁ଭିତିରି": 21228,
  "▁inspiration": 33679,
  "▁communicable": 54673,
  "▁ଦ୍ୱି": 11667,
  "▁theory": 29372,
  "▁ambitious.": 39703,
  "▁ଅନୁକୂଳ": 14072,
  "▁ମିନେରା": 48028,
  "▁ପିନାକୀ": 54777,
  "▁ଟର": 70724,
  "▁ଜିତିଲା": 20996,
  "▁helpful,": 72482,
  "λ": 325,
  "ରୋଗୀ": 63507,
  "fold": 33102,
  "ା୧(ଆପ୍ର):": 72527,
  "ର୍ଚ୍ଚ": 2086,
  "▁କର୍ମକର୍ତା": 41169,
  "ିତାଙ୍କ": 9733,
  "▁ଇ-ଶାସନ": 37043,
  "▁ନିବ": 18869,
  "▁ଶଶି": 21048,
  "ପାର୍ଟି": 65483,
  "▁country": 2765,
  "▁spe": 1750,
  "▁ହୈ,": 32005,
  "▁ଷ୍ଟେଶନରେ": 74867,
  "ically.": 23495,
  "▁ପାଙ୍ଗୀ": 56469,
  "▁ସେରି": 64175,
  "ର୍ସରେ": 65300,
  "▁ଛିଡା": 17901,
  "▁ଭୂମିକାକୁ": 41831,
  "▁ଦେଉଛି।": 27058,
  "▁ମେଡ": 5580,
  "▁Weapons": 62111,
  "▁ଓଠକୁ": 64337,
  "▁bud": 59414,
  "ର୍ପଣ": 10822,
  "ster": 6804,
  "▁ହୋଇଗଲା": 7048,
  "▁ସିନ୍ଦୂର": 35572,
  "▁ଡିସେମ୍ବର୍": 46301,
  "▁Autonom": 51048,
  "▁କେନ୍ଦୁଝ": 34609,
  "▁strike,": 74739,
  "▁ହୋଇନଥାଏ।": 60041,
  "ଔ": 563,
  "ତାରି": 10626,
  "▁ରାଶି।": 31550,
  "▁does,": 22095,
  "▁merg": 26209,
  "▁telecoms": 51854,
  "▁declarations": 15349,
  "▁extends": 29823,
  "▁existence,": 47816,
  "▁operates": 25797,
  "▁କିଙ୍ଗ୍‌": 36126,
  "▁disastro": 58333,
  "▁ମହାତ୍ମାଗା": 36497,
  "▁କରିଥିଲେ,": 16725,
  "▁ଅଯୋଧ୍ଯାରେ": 39728,
  "▁ସୁନାଖଣିର": 20281,
  "▁Bor": 32267,
  "▁Rich": 46625,
  "▁ବନ୍ଧୁ,": 55267,
  "▁scrutinis": 67159,
  "▁ଅନ୍ଯତମ୤": 70873,
  "▁immigration": 7366,
  "▁ଚାଲିଛି:": 66970,
  "▁ବଦ୍ରୀ": 40188,
  "ହୁତି": 54247,
  "▁ଟୋକିଓ": 37072,
  "▁History": 41230,
  "▁illnesses": 38790,
  "▁ଏନ୍‌ସିପି": 74668,
  "▁We": 1420,
  "▁shrink": 61594,
  "▁ପାଳିବ": 63074,
  "▁core": 12919,
  "-Tsagarop": 62947,
  "▁‘ବିସ୍ମଯ’": 67160,
  "▁ନଗରକୁ": 49939,
  "▁difference": 10273,
  "▁ରିଷି": 27607,
  "▁left": 6088,
  "▁ମନରେ": 6602,
  "ଦେଖ": 9465,
  "▁OR": 22934,
  "▁ସାଉଦୀ": 69069,
  "▁1990s,": 51353,
  "ଷ୍ଟିଓ": 70759,
  "▁counterfeiting,": 67084,
  "▁respects.": 40506,
  "▁ବାସିନ୍ଦାମାନେ": 70652,
  "▁ବ୍ଯଥା": 31035,
  "▁ଚୁକ୍ତି": 10631,
  "-ମ": 15816,
  "▁dating": 44463,
  "▁୬.": 14239,
  "▁ଗଛର": 16853,
  "▁ନିରକ୍ଷର": 55461,
  "▁Potočnik": 58457,
  "▁ଏଡାଇ": 32413,
  "▁ମାତ୍‌": 66847,
  "▁Joint": 13544,
  "▁ସତର୍କତାର": 56719,
  "ବଲ୍": 71799,
  "-୨୦୧୮ରେ": 42947,
  "ବକ୍ତା": 19943,
  "▁ଅଷ୍ଟ୍ରେଲୀଯ": 69379,
  "▁ଇବ୍ରା": 41156,
  "▁।୫।": 60568,
  "ହୁର୍": 65607,
  "▁resolution.": 9962,
  "▁vib": 62164,
  "▁ଜାମିନ": 11108,
  "▁ସେକ": 33744,
  "▁Mutual": 58477,
  "▁ଉପରେ।": 40664,
  "▁adequate.": 55495,
  "▁ଶରଦ": 35792,
  "▁ବୃଦ୍ଧଙ୍କ": 42038,
  "ିବାଦ": 15117,
  "▁ମଣିଷଖିଆ": 67607,
  "▁ବର୍ଷ,": 25236,
  "▁କଶ୍ମୀରର": 36355,
  "▁ଗୁଣି": 17589,
  "▁ଡେଣା": 52616,
  "▁disabled": 15291,
  "♡": 819,
  "▁horrified": 69117,
  "▁ଦୂରସ୍ଥାନକୁ": 46168,
  "▁ଫେଲ": 27749,
  "▁ଅଭୁଲା": 44033,
  "▁turmoil": 49684,
  "▁Brinkhorst": 64691,
  "ଶନ୍‌": 34685,
  "︎": 919,
  "▁goals.": 25707,
  "▁eradication": 30074,
  "▁Gaza": 18137,
  "▁Madagascar": 58659,
  "▁ବିହାରୀ": 12337,
  "▁forg": 12473,
  "▁୭ଜଣଙ୍କୁ": 74996,
  "к": 365,
  "▁ବାଲିକୁଦା": 51648,
  "▁ସୋରୁ": 64772,
  "▁Nic": 25414,
  "▁air.": 41182,
  "ଭଞ୍ଜ": 8999,
  "etta": 74297,
  "▁ପହଞ୍ଚ": 3203,
  "▁ବେନ୍‌": 59471,
  "▁ନିଜ…": 56867,
  "22": 16187,
  "▁Poor": 68518,
  "ରଣ": 1687,
  "▁hab": 33850,
  "▁envoy": 39262,
  "▁repatriation": 39818,
  "▁ଜୁଡ଼": 43118,
  "▁employers,": 47142,
  "▁ଭବନକୁ": 59519,
  "▁ନିଶ୍ଚଯ।": 45229,
  "▁କୀର୍ତ୍ତନ": 50084,
  "▁ଇଂଲ": 7082,
  "▁ଟ୍ରକକୁ": 33884,
  "▁ଯୁବତୀଙ୍କ": 8962,
  "▁cells,": 58602,
  "▁patent,": 63745,
  "ପେଟରେ": 24328,
  "▁scapegoat": 70632,
  "▁ଲଙ୍ଗ": 28822,
  "▁ତାଲା,": 63599,
  "uf": 7652,
  "▁ଏପରି…": 48471,
  "▁sch": 4480,
  "▁ଆଦରି": 50968,
  "ନେଲ": 39612,
  "▁ଡାଏଲିସିସ୍": 59140,
  "▁Angola,": 68095,
  "▁ଉନ୍ନତୀକରଣ": 73242,
  "▁liability,": 60548,
  "▁sustained": 21118,
  "▁biodiversity.": 35564,
  "▁drain": 36748,
  "▁steered": 70874,
  "▁ଗୋଦାମ": 30879,
  "ମ୍ବି": 14965,
  "▁ରଖିବାକୁ": 8354,
  "▁ଅଥବା": 15270,
  "▁ଆଣେ": 54066,
  "É": 157,
  "": 911,
  "▁Kyrgyzstan": 53969,
  "▁shipping": 21047,
  "▁CITE": 40074,
  "▁ପାଇଗଲା": 58244,
  "▁Organisation": 13379,
  "▁(ଜେ": 63605,
  "▁Reformist": 65191,
  "▁ଶରୀରକୁ": 7744,
  "▁ରହିଥାନ୍ତି": 31245,
  "▁taxing": 67582,
  "▁energy-efficient": 46415,
  "▁acquis,": 55080,
  "▁ଆଫଗାନିସ୍ତାନର": 54556,
  "▁self-conf": 59782,
  "▁Level": 37041,
  "▁Furthermore,": 6358,
  "ଇର": 12246,
  "▁propos": 1642,
  "▁Good": 23968,
  "▁Law,": 70926,
  "▁ସମସ୍ତ…": 60446,
  "▁ସାଇ": 4104,
  "ଜନ୍": 34793,
  "▁ପ୍ରାଥମିକ": 6883,
  "▁ful": 2540,
  "▁ଭାଇରାଲ,": 59525,
  "ified": 3650,
  "▁denies": 49044,
  "▁ରସଗୋଲାକୁ": 63184,
  "▁ବଳା": 41420,
  "ortion": 61400,
  "▁ଚିଆ": 63588,
  ".in": 37930,
  "▁ଅସ୍ତରଙ୍ଗ": 41133,
  "▁କେନ୍ଦ୍ରାପଡ଼ାରେ": 43428,
  "▁Turks": 49625,
  "▁ନେଲ": 27291,
  "▁୦.": 40443,
  "▁ପୁଷ୍": 14984,
  "▁realistic,": 45238,
  "▁ମେହେବ": 74078,
  "▁ପାଥେଯ": 57744,
  "▁ସଙ୍ଗୀତରେ": 58562,
  "▁ସ୍ମାର": 14714,
  "▁ଚିତ୍ତରଂଜନ": 45491,
  "▁ବିରୁଦ୍ଧରେ": 8427,
  "▁ମିଳିତ": 7090,
  "▁୧୧୭": 39689,
  "ନଳୀ": 40640,
  "▁topic,": 45111,
  "▁ଗବେଷଣାରୁ": 16443,
  "▁ହାରିଯ...": 69423,
  "▁logistic": 62019,
  "ଷ୍ଟିଗେ": 63918,
  "▁ଓଟି": 51881,
  "▁ପ୍ରବାହକୁ": 47594,
  "▁କ୍ଲାସରେ": 68009,
  "yps": 67478,
  "▁କରଞ୍ଜିଆ": 45761,
  "▁left.": 45455,
  "▁Buttigl": 51867,
  "ଘା": 3848,
  "▁ବ୍ଯବଧାନ": 22675,
  "▁fees": 32836,
  "▁ବିମୁଦ୍ରାକରଣ": 15289,
  "▁ବଳବାନ": 59259,
  "ଦେଇ": 4090,
  "▁ଲାଇନଚ୍ଯୁତ": 38411,
  "▁Morg": 50632,
  "▁ପିଅନ୍ତି": 39248,
  "▁deadly": 50076,
  "▁Netherland": 16147,
  "▁ଘରେ": 3035,
  "▁consci": 15747,
  "ston": 68157,
  "▁2)": 47365,
  "▁Mo": 24956,
  "▁ଗୁଣରେ": 34608,
  "▁Haarder": 53786,
  "▁ପ୍ଲାନେଟ": 38246,
  ":30": 35068,
  "▁ଅପେକ୍ଷାରେ": 14517,
  "▁ଓଡ଼ିଶାରେ…": 58541,
  "▁Meanwhile": 72973,
  "▁More": 5138,
  "ୱାର୍ଡ": 17727,
  "▁utilities": 67986,
  "ù": 200,
  "ୀନ": 1740,
  "▁ଦମକଳ": 18009,
  "▁ଚିକିତ୍ସାଧିକାରୀ": 56304,
  "▁culturally": 53285,
  "▁label.": 60823,
  "ably,": 16692,
  ",୨": 6531,
  "▁helpful.": 49364,
  "▁ଦୁଃଶାସନ": 56918,
  "▁fe": 3071,
  "▁duplic": 21728,
  "▁ଦାନ୍ତରେ": 49150,
  "ू": 471,
  "▁ପ୍ରତିଷ୍ଠାନ,": 67039,
  "yards": 64709,
  "କ୍ରମେ": 11422,
  "▁ଅନୁବାଦ:": 60282,
  "ଫିନ୍": 58767,
  "▁ପ୍ରଭୁଙ୍କୁ": 41922,
  "▁exponential": 49232,
  "▁ଷ୍ଟୁଆ": 64775,
  "▁years": 2868,
  "▁training": 6517,
  "▁line": 4856,
  "ବାହୀ": 16412,
  "▁ଓଠରେ": 35566,
  "▁ମତ": 3316,
  "▁Castro": 32316,
  "▁ତୃଟି": 44425,
  "▁ବଞ୍ଚିଛି": 54526,
  "▁submitted,": 59761,
  "▁'en": 63650,
  "▁paths": 49633,
  "▁ଓଭରବ୍ରିଜ": 43779,
  "▁potato": 31859,
  "▁list": 4046,
  "▁ଶାସ୍ତ୍ରରେ": 27863,
  "▁କରିପାରିଲେ": 28497,
  "▁ଛପ": 50641,
  "ଗୁରୁ": 9985,
  "el,": 17034,
  "▁appointment": 17018,
  "ଦଯାଲ": 57522,
  "-oriented": 29999,
  "▁petroleum": 65445,
  "▁ଶୁଝିବା": 72132,
  "▁କ୍ରେଜ": 64322,
  "▁firstly,": 11368,
  "▁safeguarded.": 49782,
  "▁ସ୍ୱାଇଁଙ୍କୁ": 63440,
  ":28": 37980,
  "▁tragedy.": 37832,
  "▁ଯବକ୍ଷାରଜାନ": 46359,
  "▁ପିମ୍ପୁ": 33544,
  "irac": 30241,
  "▁ଲକ୍ଷ୍ନୌର": 64694,
  "▁ହତାଶ": 30908,
  "-୩’": 71630,
  "▁division": 14545,
  "▁ବନାମ": 17579,
  "▁ସମ୍ପର୍କରେ।": 57592,
  "▁ମାଡ୍ରାସ": 36018,
  "▁ନିଲମ୍ବିତ": 9936,
  "ब": 454,
  "▁ନାଚିବାକୁ": 58147,
  "▁plagued": 74400,
  "▁spec": 2664,
  "▁incur": 20268,
  "▁ହୃଷୀକେଶ": 45084,
  "ହ୍ଲାଦ": 42575,
  "▁noise": 15086,
  "▁ଶୁଣିଥିବେ": 52129,
  "▁drif": 70838,
  "▁ଶୁଣିଲା": 37887,
  "▁thriving": 71346,
  "▁ବାଇକ୍‌ରୁ": 66661,
  "▁ଚାର୍ଜିଂ": 52669,
  "ୈଃ": 64994,
  "▁insofar": 26272,
  "▁passed.": 53293,
  "▁ବୈଠକର": 34466,
  "▁ଅବକ୍ଷଯ": 50498,
  "▁ବୀଜ": 36085,
  "▁adopted.": 14381,
  "▁ସେବକଙ୍କ": 63099,
  "ୀକୃତି": 17203,
  "▁ଅଣ୍ଡାମାଡ": 52504,
  "▁transl": 16098,
  "▁ପାହାଚ": 27728,
  "ାଗ୍ର": 26433,
  "▁ଇତିହାସ": 7220,
  "▁additives": 31835,
  "▁୧୯୮୬": 36154,
  "ମ୍ୱର": 17993,
  "contro": 21159,
  "▁ଜଣାପଡ଼ିନାହିଁ।": 52630,
  "ରୁ।": 63591,
  "riage": 48918,
  "▁died.": 57775,
  "▁ବ୍ରିଟେନ": 41594,
  "▁ଟ୍ଯାକ୍ସ": 20259,
  "▁meag": 45890,
  "▁ଭାରତବର୍ଷରେ": 49879,
  "▁ସାଲିଆ": 38437,
  "▁ନର୍ଲା": 74740,
  "▁ପ୍ରୋଫାଇ": 35947,
  "▁ହୋଇପାରୁନି": 51833,
  "▁ବାର୍ଷିକୀରେ": 53522,
  "▁ଅନନ୍ତନାଗ": 65707,
  "▁ମିଳୁଛି": 8965,
  "ାର୍ଥୀ": 7457,
  "▁ଆସନ୍ତାକାଲିଠାରୁ": 34611,
  "ନାଟ୍ଯ": 38279,
  "▁‘ବର୍ଡ଼ର’ର": 53045,
  "▁ସାନି": 20282,
  "▁ମହାମିଳନ": 73177,
  "▁ମଧ୍ଯପ୍ରଦେଶର": 18924,
  "▁କରିଦେଇଥିଲା": 43331,
  "▁Liikanen,": 57480,
  "ଦିକ": 4640,
  "▁ବୁମ୍‌": 71121,
  "ଥିଲାଗି": 21200,
  "ତାକା": 11297,
  "▁Ener": 9251,
  "୍ଧଶ୍ଯ": 40711,
  "-୯:": 50272,
  "anch": 14139,
  "▁ଅପ୍ରା": 51114,
  "▁matters": 5530,
  "▁ଆଶ୍ୱିନ": 58384,
  "▁ସେଣ୍ଟରର": 69426,
  "▁cred": 4924,
  "▁ଆତଙ୍କବାଦର": 64340,
  "▁ଫିରିଙ୍ଗିଆ": 41506,
  "▁ଶ୍ରୀମନ୍ଦିରର": 25184,
  "ati": 35398,
  "▁1980s,": 56397,
  "▁ଆଲୋଡ଼ନ": 36798,
  "▁ସ୍ୱଯଂସେବକ": 52209,
  "▁cold": 24387,
  "▁beginning.": 34986,
  "▁ସହଯୋଗ": 4346,
  "▁ଗଣେଶଙ୍କ": 37391,
  "ଦେବଦତ୍ତ": 35928,
  "▁କିଚେ": 70720,
  "▁କରିଥ": 74938,
  "▁Rem": 34643,
  "▁'F": 34651,
  "▁କ୍ରାଇମବ୍ରାଂଚର": 70214,
  "▁ନୌସେନା": 25923,
  "ବୃତ୍ତି": 30610,
  "▁ଆଗଧାଡିର": 66161,
  "▁directive?": 66916,
  "▁deval": 73731,
  "▁କଣ୍ଟ୍ରା": 45356,
  "▁it:": 33348,
  "▁more": 1533,
  "▁କୋଷ": 21545,
  "▁members": 4052,
  "▁As": 2115,
  "▁Tibet.": 41666,
  "▁କୋଡ଼": 51258,
  "▁interpreting": 42057,
  "▁ହରିପ୍ରସାଦ": 37816,
  "▁50": 8684,
  "▁combustion": 48804,
  "ପ୍ରେରିତ": 48358,
  "▁anyway,": 50352,
  "▁ସଭ୍ଯଙ୍କ": 58802,
  "▁enhances": 51326,
  "ରେକ": 59660,
  "▁mayor": 62797,
  "ଏଁ": 23170,
  "▁‘ବନ୍ଦ’": 58436,
  "▁sket": 58796,
  "▁ପିଟ": 14204,
  "▁୫୦,": 67941,
  "▁exist": 3201,
  "▁passengers'": 43231,
  "▁ବୋର୍ଡକୁ": 67008,
  "▁opinions": 11402,
  "ଶତ": 39346,
  "▁communic": 4290,
  "▁କ୍ଯା": 3781,
  "▁ରହିଛି?": 44145,
  "▁(UT": 33459,
  "▁ଆଣ୍ଠୁଏ": 38249,
  "▁କୁର୍ତ୍ତା": 51257,
  "▁disguised": 58435,
  "▁right;": 74975,
  "/1999": 27069,
  "▁effic": 42892,
  "ଧର୍ମ": 12806,
  "▁infringe": 11675,
  "▁writing.": 4780,
  "ically": 3194,
  "▁step.": 21893,
  "▁occupying": 28294,
  "▁ଯୁକ୍ତଦୁଇ": 54702,
  "▁ପତ୍ରକୋବିକୁ": 28259,
  "▁ବଢିଆ": 49021,
  "କର୍ଷକ": 45876,
  "▁ଏମ୍‍": 72422,
  "▁ସେମିଲି": 72214,
  "▁ଲାଗିରହି": 23312,
  "ତ୍ବର": 61403,
  "ଟିଆ": 7887,
  "▁ବର୍ଗର": 14219,
  "ଗୁ": 1843,
  "▁ଜଙ୍ଗଲୀ": 35548,
  "▁bankruptcy": 34344,
  "ବିହାରୀ": 34338,
  "▁ପାତ୍ର।": 63113,
  "ଖୁ": 9884,
  "▁dial": 29604,
  "▁ହଷ୍ଟେଲ": 22177,
  "▁immigration.": 18206,
  "▁pro-": 29493,
  "୍ଵାନ": 16565,
  "ବୈଜ୍ଞାନିକ": 53924,
  "▁ଯାଦବଙ୍କୁ": 42765,
  "▁ନପାଇ": 20188,
  "▁ଅସ୍ତର": 31307,
  "▁କେଜି": 14808,
  "rotection": 57253,
  "▁ଶ୍ରେÂ": 70787,
  "▁ଅଶୀ": 58920,
  "▁nineteenth": 63240,
  "▁ମନା,": 58787,
  "ସ୍ପଷ୍ଟ": 16422,
  "▁demon": 4648,
  "▁ଚକୋ": 26216,
  "contract": 30969,
  "-making": 25504,
  "tm": 64985,
  "ତେଲ": 54836,
  "▁ସଂସଦକୁ": 55302,
  "/୧୧": 23168,
  "ଚନ୍ଦନ,": 43072,
  "▁(ИС": 52062,
  "▁A.": 73124,
  "tern": 1681,
  "ୋଭ": 5135,
  "▁ଜୀବନଧାରଣ": 19680,
  "▁ମ୍ଯୁଜିଯମ": 67028,
  "ଫିଲ": 43693,
  "▁referring,": 66434,
  "UA": 69910,
  "▁inali": 41877,
  "ବଖରା": 74425,
  "▁but": 1452,
  "'ର": 15645,
  "ବର୍ତୀ": 17921,
  "▁coins.": 61533,
  "▁ମହିଳା:": 52082,
  "▁କରଯାଇଥିଲା": 55611,
  "▁ବାଟମାରଣା": 65280,
  "ବିଦ୍ଯୁତ": 74375,
  "▁ଯଥ": 8219,
  "▁beings.": 26197,
  "▁exerc": 14858,
  "▁ମିଛ": 3222,
  "▁୮ରୁ": 31077,
  "ز": 405,
  "▁ସ୍ପେଶ": 57127,
  "▁ପଡ଼ିବେ": 35425,
  "▁ଅଲ": 4402,
  "ଲବ": 8088,
  "▁ଶ୍ଵେତ": 52013,
  "▁କ୍ଯାପଟେ": 27610,
  "▁ରାଞ୍ଚ": 56843,
  "ାମୁଖୀ": 71602,
  "ତ୍ବ": 11000,
  "▁ଦୌଡ଼": 24344,
  "▁ପଛାଇ": 38164,
  "ମହଲା": 57898,
  "ଆଇପି": 33599,
  "usion": 10339,
  "▁ସୁଟ୍‌": 42888,
  "▁exile": 44700,
  "-Har": 68399,
  "▁ମିଳିଥାଏ।": 14789,
  "▁ବଲକୁ": 68023,
  "▁robber": 70925,
  "▁ଟସ୍": 41973,
  "▁ହାଜ": 9031,
  "▁ଆପଣାଇଲେ": 50493,
  "▁preserving": 22037,
  "▁assumes": 41029,
  "▁ambiguity": 42864,
  "▁୧୯୫୪": 50262,
  "▁ଟେବୁଲ": 23978,
  "▁ଆଇନ୍‍": 57582,
  "▁କପିଲ୍‌": 62595,
  "-v": 63000,
  "▁recycled": 61809,
  "▁Cushnah": 65283,
  "▁Tibet": 13059,
  "▁ଚାହିଁଥିଲେ": 43429,
  "ମ୍ୱିତ": 74226,
  "ishra": 38573,
  "▁chang": 3883,
  "▁ଜଳାଇ": 49290,
  "▁managed,": 49966,
  "▁Ministerial": 37455,
  "▁ହାଜତ": 40531,
  "▁bar": 7099,
  "▁ସବ୍ଯ": 21135,
  "▁Nag": 39593,
  "▁ନବରଙ୍ଗପୁରରେ": 46344,
  "▁growth.": 13922,
  "▁ପର୍ସନାଲ": 62377,
  "▁diagn": 21055,
  "▁ସ୍ନେକ୍‌": 70885,
  "▁କପ୍:": 34620,
  "▁୧୦": 2216,
  "▁ଜନ୍": 17240,
  "▁ହରଭଜନ": 54780,
  "▁ସଖୀ": 51400,
  "▁ଭଗବତୀ": 45453,
  "▁planes": 58050,
  "▁dumping": 19508,
  "ମୋନିଆ": 37587,
  "▁low-": 50383,
  "▁disappointed": 16877,
  "ଃ": 546,
  "▁୨,": 20175,
  "▁୨୦୦୭ରେ": 39219,
  "▁ଦରକୁ": 45072,
  "▁camps,": 52675,
  "▁(ଆର": 29928,
  "▁Heritage": 53013,
  "▁1987": 62302,
  "▁marked": 17112,
  "ିନୀଙ୍କ": 39834,
  "▁କୁଅ": 54253,
  "▁1980s": 54168,
  "ୋଧ୍ଯା": 25646,
  "▁ଫ୍ଯାକ୍ଟ": 71629,
  "parent": 40510,
  "▁ନଇେ": 64105,
  "▁ବଦ୍ରିନାଥ": 66748,
  "▁ସ୍ଵାଇଁ": 57134,
  "▁seekers.": 54074,
  "▁ପ୍ରିଯା": 16902,
  ":41": 38688,
  "▁vanguard": 63557,
  "ବର୍ଷ": 3364,
  "▁Madagasc": 43017,
  "▁ରାଜରାସ୍ତା": 31097,
  "-scale": 12993,
  "▁prolong": 26901,
  "ାନ୍": 55604,
  "▁disabilities.": 42164,
  "ାଳିତ": 46618,
  "▁ପ୍ରେସର": 40823,
  "▁lo": 8299,
  "▁vacu": 31724,
  "▁ନୂଆବର୍ଷ": 29850,
  "▁Florenz": 40051,
  "▁ଖଳନ": 26007,
  "▁Asia.": 26459,
  "▁ପିତାଙ୍କର": 47846,
  "▁କାଳୀପୂଜା": 59839,
  "▁ଆଶ୍ରଯସ୍ଥଳୀ": 52335,
  "▁ଝାମ୍ପି": 54506,
  "▁what,": 35472,
  "▁Michel": 25291,
  "▁ଦିଲିପ": 31406,
  "▁ଅସ୍ତ୍ର": 6757,
  "▁ଆଣିଥାଏ": 53891,
  "▁incre": 2235,
  "anas": 57527,
  "▁ବ୍ରାଉନସୁଗାର": 42782,
  "▁ମୃଣାଳ": 62300,
  "▁ଅନ୍‌": 12414,
  "ଙ୍କନ": 13456,
  "▁ସୁଧାର": 12112,
  "▁ଖୁବଶୀଘ୍ର": 15406,
  "▁McCarth": 42778,
  "▁environmentally": 12947,
  "▁‘ବ୍ଲୁ": 68745,
  "▁Patten.": 73856,
  "▁Consum": 9777,
  "▁ଅନେକ": 2218,
  "▁ଏମଏସ": 51482,
  "▁reducing": 7461,
  "▁accountable.": 72772,
  "ନିଯମ": 37427,
  "▁ଜନ୍ମି": 65200,
  "ଷ୍ଟ": 1305,
  "▁Nieb": 53958,
  "ମ୍ଭେ": 15239,
  "ନ୍ଦରୀ": 7399,
  "▁ପଳାଇଥିଲେ।": 51832,
  "▁ଟି-ଟ": 22873,
  "▁ପୂ": 2461,
  "▁oc": 3896,
  "▁priority": 4758,
  "▁cond": 2706,
  "ିଲ।": 57061,
  "▁route,": 53168,
  "epel": 59648,
  "▁ambit": 7210,
  "▁contracting": 31057,
  "ଷ୍": 1147,
  "▁୭୫ତମ": 60767,
  "resses": 70750,
  "▁bes": 22265,
  ".୨୦୧୨": 30820,
  "▁ବକ୍ସରେ": 63017,
  "▁unilater": 63292,
  "▁produc": 6467,
  "▁ଇଣ୍ଡିଆ’": 29503,
  "▁କରିଛି।": 3663,
  "▁ହରଭ": 47961,
  "ì": 187,
  "▁ନାହିଁ": 1688,
  "▁୪ମାସ": 44934,
  "▁particularly,": 36131,
  "▁କୋର୍ଟର": 22119,
  "오": 892,
  "▁ପ୍ରେରିତ": 21300,
  "ପସନ୍ଦର": 25925,
  "▁Comments": 3812,
  "▁designated": 29984,
  "(ସି": 52029,
  "▁print": 54046,
  "▁products;": 71183,
  "▁ରୋଗୀକୁ": 32744,
  "▁physical": 14177,
  "▁repetition": 40788,
  "▁exclusion,": 31956,
  "itisation": 49549,
  "ଦଣ୍ଡ": 11932,
  "▁ସାହୁ,": 11099,
  "▁ମେସେ": 11785,
  "1.": 19457,
  "▁ରୁଦ୍ଧ": 50361,
  "▁ଦିନଠାରୁ": 30618,
  "▁support,": 10986,
  "▁Da": 66250,
  "▁stable.": 67206,
  "▁evidence": 8444,
  "▁ecosystems": 39721,
  "▁earth,": 70828,
  "ରମ": 30007,
  "keeping": 19511,
  "-୦୪": 58111,
  "▁ଭିଆଇପି": 31833,
  "▁ବିଦୁ୍ଯ": 37446,
  "▁ବେଶଭୂ": 72790,
  "▁porn": 21841,
  "▁ଟ୍ରକ୍": 19937,
  "▁ଛିଣ୍ଡି": 49169,
  "▁secure,": 53510,
  "ପନା": 13614,
  "▁ସ୍ୱାଇଁ": 10459,
  "▁the": 1016,
  "anda.": 41886,
  "▁ବାଇକର": 56704,
  "▁ଚାର୍ଜରେ": 61774,
  "ରୀକୃତ": 51271,
  "▁ପଲକ": 71432,
  "ten,": 17585,
  "▁ରନ୍‌,": 42549,
  "▁ପ୍ରତିମାକୁ": 74749,
  "▁Motors": 63511,
  "▁remarks,": 35265,
  "▁ପହଞ୍ଚିଛନ୍ତି": 43123,
  "▁ମେଯର": 4178,
  "che": 21731,
  "▁ରାଜରାସ୍ତାରେ": 22106,
  "▁।ଆଇ": 25772,
  "▁ହିନ୍ଦୁଙ୍କ": 69373,
  "▁crus": 71125,
  "▁ପ୍ରଯୋଗଶାଳା": 71239,
  "▁ବେହେରାଙ୍କ": 23484,
  "▁ରଖିବାର": 30620,
  "▁do,": 10994,
  "ଶିତିକଣ୍ଠ": 58498,
  "ଗାଁ,": 62578,
  "▁modernise": 26286,
  "▁ଭୁବନେଶ୍ୱର(ଓଡିଶା": 16809,
  "pin": 18658,
  "▁ଇଲେକ୍ଟ୍ରି": 27093,
  "ବିଧି": 45184,
  "▁କଷି": 51730,
  "▁ବଟା,": 70284,
  "▁ଅପରପକ୍ଷେ": 32666,
  "▁Tobacco": 53377,
  "▁ଛାରଖାର": 62119,
  "▁ବିହାରୀଙ୍କ": 66977,
  "ର୍‌କୁ": 29279,
  "▁ଡେବି": 27138,
  "▁fished": 64514,
  "▁ଶ୍ରୀଦେବ": 11745,
  "▁stood": 23983,
  "▁କାଳିଆ": 16052,
  "raft": 10570,
  "▁ସିସୋ": 65937,
  "▁child,": 45204,
  "▁ଶୋଧ": 64440,
  "▁ଚାହେଁ,": 69820,
  "▁ଯାଇଥାନ୍ତି": 45538,
  "୍ଯଯ": 55818,
  "▁blame": 15112,
  "▁disturb": 18620,
  "▁ସମ୍ମୁଖକୁ": 52812,
  "▁ଉଭଯଙ୍କର": 41096,
  "/୦୯/୨୦୧୮": 54575,
  "▁ଫର୍ମାଲିନ୍‌": 69469,
  "▁ନିକା": 66502,
  "▁Ministers,": 26914,
  "▁myself": 7113,
  "▁ଅତିକମରେ": 49377,
  "ଦେଲେ": 5289,
  "▁ଯୋ": 4061,
  "▁ହିନ୍ଦୋସ୍ତାନ୍‌’": 21229,
  "▁୯୩୦୦": 22779,
  "aka": 51249,
  "▁ମେଡିସିନ୍": 55969,
  "▁ପାଞ୍ଚବର୍ଷ": 67324,
  "ଦ୍ଦାନ୍ତ": 22732,
  "▁ନିଜର": 2738,
  "forming": 67876,
  "▁କର୍ତୃପକ୍ଷ": 17618,
  "▁ଲ୍ଯାଣ୍ଡମାଇନ": 68102,
  "▁possible": 2353,
  "▁ଦାଶଙ୍କୁ": 64034,
  "▁୩୫ତମ": 37124,
  "▁ବଜ୍ରପାତରେ": 32047,
  "▁%,": 28838,
  "▁Council’s": 21114,
  "▁୨୨-୨୮,": 34709,
  "cel": 9234,
  "▁ସମ୍ବର୍ଧନା": 60338,
  "ଗ୍‌": 6479,
  "〗": 842,
  "▁2001,": 19553,
  "▁networks,": 20551,
  "ରତ": 54976,
  "▁ଢାଳନ୍ତୁ": 70958,
  "▁୧୦୧": 37801,
  "▁ମିଶର": 32568,
  "▁ତ୍ଵଚା": 49836,
  "▁ଝାରସୁଗୁ": 6576,
  "ମେଳା": 16734,
  "/୧୨": 31196,
  "▁minority.": 38046,
  "ଟ୍ରୋ": 29940,
  "▁has": 1292,
  "▁7.5": 71933,
  "▁dense": 48550,
  "▁or:": 68176,
  "▁ୱେବ୍‌ସାଇଟ୍‌ଟିଏ": 30698,
  "ʲ": 278,
  "▁wave": 22335,
  "▁Members,": 10658,
  "▁Left/Nordic": 35393,
  "▁Cred": 51084,
  "▁Seves": 60437,
  "ହଳଦୀ": 69093,
  "▁ଉନ୍ନଯନ,": 74214,
  "▁farmed": 74591,
  "▁ESF": 40131,
  "▁jurisprud": 59813,
  "▁ନୈ": 17561,
  "ánam": 27505,
  "▁disappro": 48375,
  "▁excluded,": 63429,
  "▁କରୁଅଛି।": 66874,
  "▁prospects": 14137,
  "▁ସନ୍ଧି": 37563,
  "▁communications,": 47692,
  "▁Alliance": 12350,
  "ଜଲ": 39034,
  "▁totalling": 55693,
  "▁trapping": 62206,
  "uce": 71037,
  "▁shot": 34303,
  "▁ସଭା,": 55036,
  "▁Cont": 9995,
  "▁Ital": 6274,
  "▁ବୋରି": 30360,
  "▁କନା": 46851,
  "▁ସଂସଦର": 21511,
  "ୋଡି": 45752,
  "▁ନ…": 52894,
  "▁ଆଦିବାସୀଙ୍କୁ": 51322,
  "▁present-day": 59713,
  "ବଣ": 9665,
  "orkovsk": 71137,
  "▁ଏଟିଏମରେ": 32446,
  "▁ପେଟ୍ରୋଲ-ଡିଜେ": 35626,
  "ତ୍ରୁ": 8281,
  "▁“ନି": 64227,
  "▁ବ୍ଯବସାଯୀଙ୍କ": 19617,
  "kop": 39269,
  "▁ଟାଙ୍ଗ": 49926,
  "▁energies": 26725,
  "▁ବୃଦ୍ଧିରେ": 41093,
  "▁କଂଗ୍ରେସରୁ": 47258,
  "▁ପ୍ରଧାନମନ୍ତ୍ରୀ…": 64786,
  "▁vice-ch": 65228,
  "▁ଜନ୍ମଦିବସ": 72779,
  "▁circulating": 50384,
  "▁ସାଇକଲ": 58065,
  "▁found": 4408,
  "▁ମ୍ଯାନେ": 9663,
  "▁ଜରୁରୀ…": 37387,
  "▁practised": 36209,
  "▁ପଚାରି": 11283,
  "▁ରୋହିତଙ୍କ": 45704,
  "଑": 560,
  "▁କରିନାହିଁ": 41337,
  "▁ଅଖି": 74010,
  "▁ଦେଖିଛି।": 68963,
  "▁kne": 63317,
  "arity": 3424,
  "▁ଟ୍ରିବ୍ଯୁନାଲ୍‌": 71683,
  "ization.": 27143,
  "▁debates,": 30068,
  "▁କାର୍ଡକୁ": 41921,
  "▁ସଜାଗ": 22944,
  "▁ଚଢି": 24736,
  "▁remo": 11746,
  "▁4.2": 51181,
  "▁ହୋଇଥିବାବେଳେ": 15331,
  "ବର୍ଷରେ": 17834,
  "-ଏ-ଡାଏ": 48254,
  "ଦେବ,": 54287,
  "▁ଭଲପ": 21645,
  ",୨୧": 26262,
  "▁ଜେଲଦଣ୍ଡ": 36545,
  "▁Holland": 51533,
  "▁catering": 48279,
  "▁Sarajev": 47482,
  "▁energy-saving": 60461,
  "▁ଭିକ୍ଷୁ": 67883,
  "ନ୍ତୀ": 7658,
  "ipation": 45305,
  "▁my": 1718,
  "▁ଟୁଡେ": 39079,
  "▁ମାରାଣ୍ଡି": 60793,
  "▁Share": 62297,
  "▁approved.": 29765,
  "▁ସେବାଗୁଡିକ": 66613,
  "▁political,": 16907,
  "▁expl": 3400,
  "▁କମ୍ଯୁନିଟି": 36171,
  "▁ମହାପୁରୁଷ": 32782,
  "▁ରେଡ଼ିଓ": 37639,
  "▁Har": 19286,
  "▁ଥା...": 53516,
  "▁passed,": 46905,
  "ପୂର୍ବତନ": 58804,
  "▁ଦଳ।": 34935,
  "▁alike.": 38861,
  "▁fore": 3240,
  "▁ଯାଜକ": 29162,
  "▁allay": 52913,
  "fully": 10729,
  "▁ନୀରିହ": 57728,
  "▁†": 38564,
  "▁aff": 3041,
  "▁ଫଳ": 3953,
  "▁ନ୍ଯୁଜ୍‌": 22156,
  "▁bureaucracy.": 31143,
  "▁ପେନ୍‌ସନ୍‌": 36232,
  "ateness": 63863,
  "▁ଧୁମ୍‌ଧାମ୍‌ରେ": 71381,
  "▁scheduled": 20154,
  "▁ଟାରେ": 52910,
  "▁ସେଯାର୍‌": 36552,
  "▁ହୋମରେ": 68974,
  "▁represent": 2852,
  "▁ଏ.ଆର": 50275,
  "▁ଯାଏଁ": 6403,
  "▁ମାସକ": 26439,
  "▁tank": 21314,
  "▁Member,": 20052,
  "ଭଳି": 2175,
  "^": 77,
  "▁ବିଜ୍ଞ": 5309,
  "▁କାଟିଲେ": 27730,
  "▁p": 1038,
  "▁civilisation": 25208,
  "▁breeding": 31873,
  "▁୯୦୦": 36268,
  "ମାଳାରେ": 38535,
  "▁ହଜିଗଲା": 54724,
  "▁‘ମଧୁଲିତା’ର": 74244,
  "▁taxes,": 29772,
  "▁ପ୍ରତ୍ଯକ୍ଷଦର୍ଶୀ": 65185,
  "▁ଏଥିପାଇଁ": 4102,
  "zen": 19406,
  "▁inland": 23118,
  "▁civilians,": 49062,
  "▁କଳାତ୍ମକ": 63929,
  "▁ଜାଲ୍‌": 42219,
  "ିତ": 1132,
  "▁outstanding": 14607,
  "▁Khabar": 21160,
  "▁ସ୍ପୋର୍ଟସ": 44444,
  "▁limit.": 44622,
  "▁ଟେରା": 53877,
  "▁ମୂହୁର୍ତ୍ତରେ": 64382,
  "▁strong,": 26836,
  "ତୁ": 2712,
  "/୩୯,": 47768,
  "▁ଭାଗଚାଷୀ": 66935,
  "▁ଆହାତ": 60891,
  "▁ହୋଇଥିଲେ": 5249,
  "▁dictatorship": 14399,
  "▁।୧": 16563,
  "▁colleagues.": 28051,
  "▁ପେମେଣ୍ଟ": 23384,
  "▁blat": 26837,
  "▁gu": 2550,
  "▁impro": 2598,
  "▁ରଖୁଛନ୍ତି": 27488,
  "▁no,": 34417,
  "▁‘ପେଥାଇ": 7514,
  "▁ଘସି": 38885,
  "▁କାର୍ଯ୍ଯକର୍ତା": 39846,
  "▁convergence": 12180,
  "▁ସାମ୍ୱାଦିକ": 33273,
  "ରୀ,": 21464,
  "▁ଅନୁଷ୍ଠାନ,": 42759,
  "▁decide,": 43750,
  "▁କେ.": 12714,
  "▁officer": 50580,
  "▁ଜିମାଦେଲେ": 58658,
  "▁ପ୍ରଲୋଭିତ": 63206,
  "atibility": 24352,
  "▁(୧୯୬୨)": 74323,
  "▁ଅରୁନ୍ଧତୀ": 60364,
  "▁lacking,": 60480,
  "▁pace,": 72948,
  "▁stayed": 54918,
  "▁ଉତ୍ପାଦ": 4988,
  "▁Chin": 5253,
  "ାଧୀନ": 18106,
  "ଷ୍ଠା": 1869,
  "▁ବିଭାଗ।": 28572,
  "▁ନରୋ": 59416,
  "▁ଅରାଜକତା": 62695,
  "▁କରାଯାଇଅଛି": 38976,
  "▁ଖବର:": 16255,
  "▁massively": 64832,
  "▁Africa": 8585,
  "▁consolidating": 27473,
  "▁ସିଂହଦେଓ,": 52681,
  "ର୍ଷରେ": 70733,
  "▁ସତୁରି": 63015,
  "▁କହିଛନ୍ତି,": 5299,
  "land,": 15854,
  "▁ଅଦାକୁ": 66995,
  "▁ପ୍ରତିନିଧିଙ୍କ": 32444,
  "亚": 863,
  "ଡରରେ": 39499,
  "▁GNP": 30568,
  "▁based,": 38446,
  "▁decision-mak": 21853,
  "▁ଦାହ": 25360,
  "▁ବୈଦେଶିକ": 15325,
  "▁ବାଣ୍ଟି": 26410,
  "▁ଜଣାପଡ଼ିଛି": 11987,
  "▁(ଆଉ": 43140,
  "▁ପାଠକୁ": 73695,
  "iech": 36391,
  "▁ଡାଇରୀ": 29412,
  "▁ହେଉଥାଏ": 34756,
  "00": 1857,
  "▁ଏମିତ": 53517,
  "▁bubble": 74916,
  "ହଦ": 69201,
  "କାରାତ୍ମକ": 13649,
  "▁ବିଶୋଇ": 47380,
  "▁ହୋଇନଥାଏ": 27737,
  "▁ଆଣ୍ଡ୍ରଏ": 15861,
  "▁individuals,": 32080,
  "▁Yesterday,": 32302,
  "▁ପଚରାଉଚୁରା": 43450,
  "▁ଆଖିବୁଜି": 69857,
  "▁mechanisms": 9400,
  "outs": 38288,
  "▁ବାଦଶାହା": 60995,
  "▁Rein": 50510,
  "-ଜୁ": 47630,
  "▁ଚଳିତ": 4843,
  "61": 57751,
  "▁circulation.": 68992,
  "▁earthquake": 22286,
  "▁ମଣ୍ଡପ": 15889,
  "▁heartfelt": 36501,
  "ଷ୍ଟଲ": 43586,
  "▁contro": 8047,
  "▁ଦା": 3794,
  "▁ଲାପଟପ୍‌": 69484,
  "▁ସ୍କନ୍ଦ": 67263,
  "▁ଟିମ୍‌ର": 24322,
  "▁ଅଙ୍କଲ": 73341,
  "▁ଜିତିଛନ୍ତି": 48362,
  "▁control,": 17688,
  "▁fat": 15993,
  "▁ଜିଲାପାଳଙ୍କୁ": 35883,
  "▁Rev": 29729,
  "।୮-": 63195,
  "▁integrating": 21317,
  "▁ଆସନ୍ତି": 22623,
  "▁Cashman": 41680,
  "▁ନମସ୍ତେ": 59535,
  "ିକର୍ଣ୍ଣିକା": 67141,
  "▁ପରିବେଶକୁ": 27029,
  "▁ମୋବାଇଲ୍‌": 12446,
  "▁ପ୍ରୋଜେ": 15327,
  "୧]": 7994,
  "▁ଖବର,": 24007,
  "▁CFSP,": 50882,
  "▁ବିଶ୍ୱସ୍ତରରେ": 51912,
  "ରଖି": 56017,
  "▁Len": 60922,
  "▁ଉନ୍ନାଓ": 57036,
  "▁rather,": 23000,
  "▁Hatzidakis": 55796,
  "▁enlargements": 52622,
  "▁ରିଲିଫ୍‌": 38222,
  "▁ଆକାଉଣ୍ଟ୍‌": 55507,
  "ό": 339,
  "(୧୯୮": 56597,
  "▁ବୁଝାଶୁଝା": 62708,
  "▁ଲେଖା:": 47829,
  "▁IU": 67190,
  "ିତୀଯ": 3726,
  "▁amongst": 9337,
  "▁ବିପର୍ଯ୍ଯଯର": 42934,
  "▁Netherlands.": 33095,
  "▁Crit": 63586,
  "▁ସଭିଙ୍କ": 43665,
  "▁translates": 63770,
  "▁ଯୁବରାଜଙ୍କ": 65481,
  "▁workers’": 52116,
  "arer": 13283,
  "▁କଅଁଳିଆ": 68059,
  "▁fundamental,": 50216,
  "▁ସାଥ୍‌": 53831,
  "ର": 591,
  "▁ଆସିଥାନ୍ତି": 33865,
  "(SYN)": 57499,
  "କୁନି": 67505,
  "▁restored": 25778,
  "ସମ୍ବ": 53220,
  "▁Products": 57268,
  "▁wine.": 46937,
  "Leadingଦେଶ-": 43795,
  "▁sector.": 7143,
  "▁ଗ୍ରେଟର": 60285,
  "▁ସେ।": 29844,
  "▁ଦ୍ରୁଷ୍ଟି": 37494,
  "▁ବିଚାରି": 40310,
  "ସିଆଲ୍‌": 41089,
  "▁ପହଚି": 70018,
  "▁ପାଇଁ)": 55624,
  "▁ବେଙ୍ଗାଳୁ": 72963,
  "ଣ୍ଡାର": 6252,
  "▁ବାପୁ": 23149,
  "▁ନାମଟି": 71141,
  "ultural": 23885,
  "▁ନିରୀକ୍ଷଣ": 28590,
  "▁ପ୍ରଶିକ୍ଷଣ": 10561,
  "▁inhuman": 21454,
  "▁ହେଲେ,ବିଛିନ୍ନାଚଂଳ": 51389,
  "▁ଆରି": 46735,
  "▁ଘଟିବାରୁ": 63320,
  "▁ମଲରେ": 64162,
  "▁nom": 16501,
  "▁Cush": 65006,
  "▁deaths,": 56332,
  "▁ପଇଁତରା": 68503,
  "▁ପ୍ରହର": 70294,
  "-run": 43543,
  "▁ହେବା।": 74531,
  "▁ଜଗନ୍ନାଥଙ୍କର": 54874,
  "▁ଫସଫର": 48246,
  "▁ଚେକ୍": 16370,
  "▁ବିପର୍ଯ୍ଯଯ": 11656,
  "▁societies,": 33505,
  "▁(ପ": 24219,
  "▁ବୁଡ଼ି": 13120,
  "▁cent": 4921,
  "▁ସୁପ୍ରିମକୋର୍ଟଙ୍କ": 12148,
  "▁set": 2442,
  "▁ତୁଳା,": 34208,
  "▁ଚାରିପାଖରେ": 47042,
  "▁ବିଭୂ": 59920,
  "▁Cancún,": 62378,
  "ଘାତ": 6028,
  "▁perpetu": 35768,
  "▁ନିଯୁକ୍ତି,": 41179,
  "▁disability.": 70743,
  "▁ଲାଗିଛନ୍ତି।": 40670,
  "▁ସାଙ୍ଗ": 5247,
  "ଜିତ": 6664,
  "▁speed": 8031,
  "▁ବର୍ଷରେ": 6048,
  "▁protection,": 11480,
  "▁embargo,": 64327,
  "▁ଚେ": 3082,
  "▁virtually": 17322,
  "▁mainland": 52282,
  "▁ଜମ୍ମୁ-କଶ୍ମୀରର": 51681,
  "▁ende": 11367,
  "▁ହତ୍ଯାକା": 25315,
  "▁due": 4844,
  "▁issue,": 8087,
  "▁ଓ୍ଵା": 14829,
  "▁କୁକୁଡ଼ା": 21207,
  "▁allocation": 14919,
  "ଷ୍କୃତ": 24074,
  "ହଳ": 17031,
  "▁ସିଟିଜେନ୍‌": 74216,
  "▁Otherwise": 15418,
  "ables.": 44254,
  "▁enc": 3815,
  "▁ବିହୀନ": 19873,
  "▁ବାହିନୀ’କୁ": 34898,
  "ଖୋଜ": 57299,
  "▁(ଇତ୍ଯାଦି)": 72448,
  "▁ବିମୁଦ୍ରାକରଣର": 50733,
  "▁ଦେଉଛନ୍ତି": 10617,
  "▁ERDF": 43256,
  "▁organisation": 6425,
  "▁ଦୀପିକା": 8461,
  "-T": 22786,
  "▁comment": 6641,
  "▁ଇକୋ": 24357,
  "▁drugs": 10970,
  "▁କରିସାରିଲେଣି": 48645,
  "cu": 62127,
  "▁negoti": 2818,
  "▁ବେସାମରିକ": 26998,
  "▁Specifically,": 43562,
  "▁ଚାହାନ୍ତି": 13762,
  "▁ବୈଷଯିକ": 9879,
  "▁ବାଲାଷ୍ଟିକ": 65791,
  "▁ବିଭକ୍ତ": 22561,
  "ulates": 20956,
  "▁ଆଣିବାରେ": 36977,
  "utu": 64439,
  "▁merit": 18836,
  "ମ୍‌ଙ୍କ": 30017,
  "▁overth": 50200,
  "▁30,": 17960,
  "▁version.": 47452,
  "▁Thirdly": 55719,
  "▁ଗ୍ରାହକଙ୍କର": 72852,
  "▁9.": 22081,
  "▁Molucc": 70657,
  "third": 55203,
  "▁different.": 21828,
  "ଏଚ": 15040,
  "▁ଦାଯିତ୍ୱରେ": 15566,
  "▁ମାଛ": 6372,
  "କୋଠି": 70044,
  "▁ଯୋଗେଶ୍ୱର": 63051,
  "▁ମେସିନରେ": 47300,
  "▁gender.": 67427,
  "▁well,": 10633,
  "▁spring,": 60092,
  "▁ସୋଯ": 63932,
  "ή": 313,
  "▁ମହାଭାରତ": 18134,
  "ଶୁଭ": 45059,
  "▁ଦେଲା": 6190,
  "▁ସଭାକୁ": 36067,
  "▁ପଟିଆ": 33631,
  "▁Jobs": 71749,
  "▁improvement,": 43110,
  "ିବା,": 16936,
  "▁କାନଭାସ୍": 72006,
  "▁ପୁଅ/ବିଭୂତି": 67791,
  "▁concerned,": 6243,
  "▁Report.": 63159,
  "▁କଟକ,": 15205,
  "wide": 11975,
  "▁ମଙ୍ଗଳାଯୋ": 72364,
  "▁ଯା": 1711,
  "▁।୧(ବୁ୍ଯରୋ):": 47877,
  "▁ଲାଭାଂଶ": 63528,
  "▁problem;": 61186,
  "▁citizens,": 7859,
  "ଦମ୍ପ": 43573,
  "▁ମଣି": 4261,
  "▁ପ୍ରଜାତି:": 59614,
  "▁ଛୁଇଁଲା": 26173,
  "▁representat": 71527,
  "▁ଜିଲ୍ଲାର": 4555,
  "▁reck": 36958,
  "▁golden": 41764,
  "▁ଉଦ୍‌ଯାପିତ": 36476,
  "▁commitments": 8129,
  "▁bombing": 33674,
  "▁କୁନ୍ଦୁଲି": 12646,
  "▁ନେତାଜୀଙ୍କ": 68238,
  "▁ହଜାରେ": 16198,
  "▁ତୋଳି": 33770,
  "▁ବ୍ଯବସ୍ଥାରେ": 16238,
  "▁ଅପରାଧୀକ": 70886,
  "▁ସମ୍ଭାଳିଛନ୍ତି": 67061,
  "▁ବିରାଟକାଯ": 74750,
  "▁Either": 38881,
  "▁ପ୍ଯା": 7062,
  "▁5:": 63669,
  "▁inquir": 15115,
  "▁ଗ୍ରୁପ୍‌": 17765,
  "▁ବୃଷଭ": 65763,
  "▁ଖୋଳତା": 24627,
  "▁fel": 4956,
  "▁ଯିବା": 5502,
  "ାରା": 1658,
  "▁ଅନ୍‌ଲାଇନ୍‌ରେ": 28502,
  "▁ବେଆଇନ୍‌": 36223,
  "▁ଧମକକୁ": 57166,
  "▁ଅଣହିନ୍ଦୁ?": 29197,
  "ନ୍ସ୍‌": 70285,
  ".ବି.": 52867,
  "▁ଛିଣ୍ଡା": 72834,
  "▁Green": 7314,
  "▁ପାଓ୍ଵାର": 40903,
  "▁ସୁରା": 41450,
  "▁ଦିଲ୍ଳୀ": 52357,
  "କର": 2594,
  "▁ବ୍ଯୋମକେଶ": 63552,
  "▁Ang": 19953,
  "▁ସୁନନ୍ଦା": 35565,
  "▁ବ୍ରାଣ୍ଡେ": 58548,
  "▁small-": 33499,
  "▁ଉନ୍ନତି": 8334,
  "▁visit,": 57428,
  "▁ଏନଏସଜି": 60852,
  "oor": 8449,
  "ୀପରେ": 20637,
  "▁1995,": 26164,
  "▁traum": 39522,
  "▁ହସ୍ତାକ୍ଷର": 53545,
  "ହକ": 71046,
  "▁Behind": 74391,
  "ମେରି": 57562,
  "▁figure": 12724,
  "▁ନିର୍ବୋଧ": 44598,
  "ଳୀଳ": 18075,
  "▁target,": 47832,
  "▁ପ୍ରଶ୍ନବାଚୀ": 20169,
  "▁ମୁହଁର": 33976,
  "ded": 35583,
  "▁educate": 47557,
  "▁୪୮ଘଣ୍ଟା": 69763,
  "▁Aj": 50021,
  "▁influence.": 32661,
  "▁stations": 19557,
  "▁ରହସ୍ଯ": 8697,
  "▁ଭଯାବହତା": 62059,
  "ୂପି": 74429,
  "ath": 3390,
  "▁million.": 14349,
  "▁ଆସିପାରିବ": 62490,
  "▁recognize": 21717,
  "ଆଇଏ": 24415,
  "▁କଣ୍ଡ": 26503,
  "▁ଆର୍ଯ୍ଯ": 27823,
  "▁Kazakh": 28430,
  "▁111": 64804,
  "▁Tever": 74932,
  "▁ଲୋକାଲାଇଜେସନ,": 57511,
  "▁judicial": 9115,
  "astamk": 73158,
  "▁end": 2407,
  "ଷମ": 50146,
  "▁ସାଇଲେ": 69207,
  "▁ଉତ୍ତର,": 58990,
  "▁chapter,": 64616,
  "▁ଅଚଳାବସ୍ଥା": 31908,
  "▁intellectual": 12664,
  "▁ସିଇଓ": 18241,
  "▁ineffectual": 72999,
  "▁ଜାପାନୀ": 20973,
  "▁ସ୍ପଷ୍ଟିକରଣ": 65403,
  "▁ବୁଲୁଛି": 33714,
  "▁କରିଥିଲ": 40076,
  "ସିଂହପୁର": 9862,
  "▁ସାଧୁଙ୍କୁ": 73349,
  "astro": 14078,
  "▁୧୯୮୨": 41926,
  "▁signature": 29540,
  "▁ଗାଧୁଆ": 41115,
  "▁୨ଟାରେ": 45770,
  "光": 868,
  "▁controls": 10255,
  "ଣୁ": 2280,
  "▁politicians,": 26822,
  ".୫୦": 46844,
  "▁‘ବୁ": 50188,
  "▁interests,": 16219,
  "▁ନମିଳିଲେ": 71335,
  "▁projects": 5566,
  "▁ଜଣାପଡ଼ିଲା": 44162,
  "ୁଆଳ": 47018,
  "▁manufacturers.": 47078,
  "▁ଚ୍ଯାନେଲ୍": 49367,
  "▁Rothe": 67063,
  "▁ସେବେଠାରୁ": 31965,
  "▁ଦେଖିଲୁ": 60174,
  "▁Pak": 11171,
  "ଏସ୍‌": 4472,
  "▁by": 1263,
  ",୨୮": 47710,
  "▁କର।”": 50160,
  "▁deteriorating": 36426,
  "ଁର": 41873,
  "▁ICAO": 44769,
  "▁କ୍ଲାସ୍‌ରୁ": 51182,
  "▁covering": 16601,
  "▁ତପନ": 27192,
  "▁childcare": 30361,
  "▁ତଣ୍ଟିକ": 60654,
  "▁ମଂଜୁର": 39568,
  "ike": 67167,
  "▁ମହାରଣା)": 67395,
  "▁ପାପକୁ": 70143,
  "▁emphasizing": 73230,
  "▁ଚିତ୍ରଶିଳ୍ପୀ": 44272,
  "▁currenc": 52686,
  "▁criticism": 8201,
  "ନ୍‌:": 26067,
  "▁content": 6498,
  "▁ଖୋଜନ୍ତୁ": 35936,
  "▁Tuesday,": 45372,
  "▁୧୯୩୮": 24249,
  "▁ସବୁବେଳେ": 6988,
  "▁doubt.": 41377,
  "▁ଫେରେ": 67885,
  "▁ରିଲା": 14876,
  "▁simple:": 45943,
  "ହ୍ଯା": 56825,
  "▁ଭିଏଲଇ": 24584,
  "▁ଇନ୍ଧ": 59450,
  "▁ଅବପାତର": 58129,
  "utting": 34081,
  "ିବାସିନ୍ଦା": 37859,
  "▁ପ୍ଯାକ୍ସ": 55291,
  "▁sore": 44579,
  "▁ପ୍ରଶ୍ୱ": 50662,
  "ighter": 25571,
  "▁harmonisation,": 34889,
  "▁ECB": 13069,
  "▁guarantees": 9138,
  "▁fact,": 5341,
  "▁weakness.": 74649,
  "▁Japan,": 28758,
  "▁quote,": 34043,
  "▁privatisation.": 74829,
  "▁default": 45667,
  "▁ଅଟେ": 4792,
  "▁ବିଏସଏନ": 31449,
  "▁ଯିହୁ": 20750,
  "▁କରେଣ୍ଟ": 41273,
  "▁ରହୁଥିଲା।": 53298,
  "▁ଦ୍ରା": 23736,
  "▁abolished,": 55761,
  "▁ବୁଝି": 10830,
  "▁attach": 9935,
  "▁ଭିଟାମି": 15473,
  "▁ମହାକଭରେଜ୍": 31149,
  "ମାକୁ": 33592,
  "▁ରୂପାନ୍ତରଣ": 68760,
  "▁ଉଠିଥିଲେ": 72835,
  "▁devices": 33879,
  "▁countr": 1489,
  "5%": 15365,
  "▁digital": 14503,
  "▁ସେପ୍ଟେମ୍ବର୍": 43224,
  "▁ଯୋଗକୁ": 61178,
  "▁ଭୋଗିବା": 67628,
  "▁odisha": 70221,
  "▁ଆଲୋଚନା:": 16866,
  "▁ବନିଲେ": 40933,
  "▁ଛଳନା": 47334,
  "▁ହାତା": 40263,
  "ଗାଲ": 35158,
  "ormick": 51903,
  "ନିଜର": 54821,
  "▁ଆସିବେ,": 64016,
  "▁ଚଯନ": 8863,
  "▁କଂଚା": 58466,
  "inta": 66080,
  "▁ଡିଭିଜ": 28073,
  "▁ମେଡିକାଲର": 60528,
  "▁୦.୫": 62268,
  "-R": 13571,
  "▁jeopardises": 61791,
  "▁ଛଅଜଣଙ୍କ": 55939,
  "▁ଟିକେଟ୍‌": 22967,
  "▁(COM(96)": 46343,
  "▁ନଦୀରୁ": 43034,
  "▁ତଦନ୍ତରୁ": 31082,
  "ଷ୍ଟାଇ": 30923,
  "▁sensibly": 54934,
  "▁କୁଳଭୂଷଣ": 44299,
  "▁ବିଶ୍ବବିଦ୍ଯାଳଯର": 66667,
  "▁ତମ୍ବାଖୁ": 62943,
  "▁minds.": 54308,
  "▁ଆବିର୍ଭାବ": 52848,
  "▁ସୁରାକ": 57588,
  "ଡି଼": 68526,
  "▁ଧୈର୍ଯ୍ଯ": 22526,
  "▁ମାରପିଟ୍": 69485,
  "▁abstain": 10802,
  "▁ଅନୁପ୍ରବେଶ": 22026,
  "ged,": 42180,
  "ମାଂସିତ": 60098,
  "ଗୋଲ": 35086,
  "▁ଦୀପଦାନ": 60753,
  "▁correctness": 66974,
  "▁ଲୋକଙ୍କୁ": 4588,
  "▁ଷ୍ଟାର୍ଟଅପ": 52179,
  "▁ଶିକ୍ଷକଙ୍କର": 52299,
  "▁decree": 43197,
  "▁(ଅଦଳ": 46933,
  "-ଓଡ଼ିଶା": 57293,
  "▁nois": 68918,
  "ṅ": 735,
  "▁ଦୃଷ୍ଟ": 50978,
  "▁countries": 1679,
  "▁benzene": 65277,
  "▁pled": 18108,
  "▁meaningless.": 69054,
  "▁boost": 11719,
  "▁ମିଛରେ": 66285,
  "▁ମାର୍କେଟକୁ": 74796,
  "▁ଅଟେ,": 34827,
  "▁ଲିଗ୍‌": 22747,
  "୔": 627,
  "▁nearby": 74224,
  "କ୍ରାର": 40815,
  "▁ଡାକ୍ତ": 13414,
  "▁ପ୍ରତିଷ୍ଠାତାଙ୍କ": 48632,
  "▁ରଘୁବୀର": 63244,
  "▁ଗଜେନ୍ଦ୍ର": 45492,
  "▁allotted": 37224,
  "▁ଚମକି": 31598,
  "ପରିଷଦ": 23274,
  "▁(୨୦୧୭)": 60815,
  "▁duties.": 31788,
  "▁ଡଙ୍ଗରିଆ": 53560,
  "▁ଜାଣିବାରେ": 63968,
  "▁ଶବ": 5746,
  "ମିତ୍ର": 53991,
  "▁commod": 20206,
  "ଲ୍ଡ": 9041,
  "(ଡି.ଏନ୍‌.ଏ.):": 15580,
  "▁ଜଞ୍ଜ": 54989,
  "▁ସେଣ୍ଟର": 12068,
  "▁Failure": 58201,
  "▁ନୂଆଦିଲ୍ଲୀରେ": 29938,
  "▁mechanical": 59372,
  "ଜଯନ୍ତ": 4657,
  "-elected": 42273,
  "▁Italy's": 59786,
  "▁ଅବିଚ୍ଛେଦ": 66376,
  "▁କରିଦେଇଥିଲେ।": 31492,
  "ାର୍ଦ୍ଧ": 44480,
  "roduced": 68610,
  "▁କମିଶନର": 11609,
  "▁ଉପଭୋକ୍ତାଙ୍କ": 33675,
  "▁reaction": 11629,
  "▁litre": 68748,
  "▁ରାଉରକେଲା:": 22562,
  "▁Rompuy": 59625,
  "▁ଚିତ୍ତରଞ୍ଜନ": 39577,
  "▁ପ୍ଯାରେ": 39641,
  "ଦର୍ସ": 27541,
  "▁ଆରୋଗ୍ଯ": 18554,
  "▁ଉଦ୍ବୋଧନ": 51952,
  "▁pages": 31275,
  "▁ଘେରିବ": 56975,
  "▁ବିସ୍ଫୋରଣରେ": 17201,
  "▁Manch": 57066,
  "▁‘ସୁରଭି": 36796,
  "▁୨୫ଲକ୍ଷ": 60216,
  "ୋଧିତ": 15109,
  "▁25%": 24446,
  "▁Rights": 6579,
  "▁ଲାଇଫ": 27372,
  "▁ସାଥୀଙ୍କୁ": 55114,
  "▁ଗ୍ଲେଜ୍": 70249,
  "▁ପର୍ତ୍ତୁଗାଲ": 74838,
  "▁result,": 11529,
  "▁ହେରିଟେ": 66777,
  "୩ରୁ": 53807,
  "▁kidnapped": 60844,
  "ଗଙ୍ଗା": 51727,
  "▁ବେପ": 43595,
  "▁ଅସ୍ଥିର": 39412,
  "▁ଜାତି,": 32951,
  "ଏନଜି": 49050,
  "▁ଗୌଣ": 66355,
  "▁ବ୍ଯବସାଯରେ": 11990,
  "ୁଙ୍କ": 54416,
  "▁ଛକାପଞ୍ଝା": 54583,
  "ନଥିଲି": 68494,
  "▁ପାରଦ": 31252,
  "▁ରଖିବ।": 47532,
  "▁ପାଣିରେ": 7109,
  "▁While": 9097,
  "ଷ୍ମାନ": 12627,
  "▁extraordinary": 14826,
  "▁ଓଡ଼ିଶାରେ": 4697,
  "▁ଥେରାପି": 24336,
  "▁support.": 8255,
  "▁Doyle": 48278,
  "▁passing": 20879,
  "ograph": 6595,
  "▁ଖୋଜି": 13174,
  "▁ରାଯ": 3880,
  "▁regulating": 20931,
  "▁ବହୁଦିନ": 39294,
  "▁ବୈଜଯନ୍ତଙ୍କୁ": 29627,
  "▁ଖୋଲାଯିବ।": 71554,
  "▁କା": 1612,
  "ṭ": 743,
  "▁commendable": 36486,
  "▁କରନ୍ତୁ": 1917,
  "▁pushing": 24525,
  "▁ପ୍ରତିପୋଷଣ": 54254,
  "▁pictures": 41750,
  "ratory": 24572,
  "▁ପ୍ରତିନିଧିତ୍ୱ": 23977,
  "▁ଅଣ୍ଡା,": 58369,
  "▁ଆଇପିଏଲ୍": 40950,
  "▁ଉପହାସ": 17999,
  "ଣସି": 2161,
  "▁provoke": 46036,
  "▁ପିଣ୍ଡି": 69648,
  "▁role.": 15911,
  "▁draft.": 47149,
  "▁2007.": 17665,
  "▁ଗଛକୁ": 22606,
  "▁ବଲାଙ୍ଗୀରର": 52993,
  "▁transfer,": 68359,
  "୧୯]": 71566,
  "▁workers.": 13972,
  "▁ତଳକୁ…": 74630,
  "▁impover": 35917,
  "▁ରେସ୍ତୋରାଁରେ": 63226,
  "▁ଡେଭଲ": 14085,
  "▁ଖେଳର": 30020,
  "▁officials.": 38096,
  "ିକାଲ୍": 23741,
  "ଏମଆଇ": 44521,
  "▁post": 3054,
  "▁କପ୍‌": 14504,
  "▁ଜମନ": 59169,
  "▁ପ୍ରଭାବରେ": 9538,
  "▁cap": 3295,
  "▁ବାକ୍ଯ": 14734,
  "▁କଳେବର": 47049,
  "▁scratch": 47546,
  "ଙ୍ଗ,": 21863,
  "▁ପ୍ରଧାନ।": 28864,
  "▁suspend": 19405,
  "ଞ୍ଜୁର": 44828,
  "▁ପାଳନର": 18619,
  "ବ୍ଲିକ": 60132,
  "▁Hist": 31665,
  "▁Randzio": 31836,
  "▁ତୁଟୁ": 54454,
  "▁“ଯେଉଁ": 61202,
  "ିବେଶ": 5239,
  "▁।୧୭": 40646,
  "▁ଐତିହ୍ଯ": 4393,
  "▁arrangement": 15139,
  "▁Haut": 34484,
  "ଟୋମା": 50204,
  "଻": 602,
  "▁ସକାଶେ": 15704,
  "▁ମହେନ୍ଦ୍ର": 14499,
  "▁with": 1183,
  "କାରା": 12905,
  "ଟୁନ": 51790,
  "▁emit": 59952,
  "▁(COM(95)": 66119,
  "ସନ୍‌ଙ୍କ": 72381,
  "▁ଉତ୍କର୍ଷ": 42236,
  "▁professional": 8989,
  "ଗୋର": 58462,
  "▁Agriculture,": 43969,
  "▁Passeng": 49988,
  "▁Council:": 37097,
  "▁ରାଯଗଡ଼ା,": 35007,
  "▁୧୯୯୫": 36475,
  "▁ପିଏନ୍‌": 38443,
  "▁ଚକ୍କର": 50475,
  "▁acceptance": 16819,
  "▁﻿": 8147,
  "▁proteins": 62071,
  "▁ଖଣ୍ଡଗିରି": 20275,
  "▁ଜିନ୍’": 30331,
  "▁Monnet": 47697,
  "▁figure,": 58786,
  "▁troops": 17421,
  "▁heated": 40909,
  "▁।୨୫": 58695,
  "▁EU.": 6367,
  "▁consequent": 21996,
  "-country": 15714,
  "ମନୋଜ": 60997,
  "▁ଇହ": 50790,
  "▁ଅଗ୍ରତେ": 69381,
  "ାଯଣ": 5432,
  "▁ଛକା": 17895,
  "▁became": 14347,
  "▁missions": 23663,
  "▁କରାଯିବ,": 33447,
  "(ଡି.ଏନ.ଏ):": 64304,
  "▁ନାବାଳକ": 12634,
  "▁troub": 31261,
  "▁ଆଗ୍ରହର": 68710,
  "▁rapid,": 70464,
  "▁neglected.": 70183,
  "▁clever": 45697,
  "ବାର୍ଷିକ": 19532,
  "▁ଏକ୍ସପ୍ରେସ୍‌": 31444,
  "▁ମଶାଣିରେ": 38792,
  "▁ଭିତ": 2215,
  "-୨୦": 9531,
  "ology,": 23574,
  "▁beautiful": 26905,
  "▁open-": 56296,
  "▁option.": 31060,
  "▁ହ୍ଯାରି": 69516,
  "▁printed": 46759,
  "▁directives,": 26334,
  "▁syndrome": 70635,
  "ଭ": 588,
  "▁life.": 11357,
  "itute": 14027,
  "▁ଜିତୁ": 33128,
  "▁ପହଞ୍ଚିଲେ…": 55766,
  "▁ଚିରଦିନ": 49361,
  "▁ମାଂ": 59443,
  "▁ଗୋଲ୍ଡ": 27656,
  "▁ସଂସ୍କୃତି": 3246,
  "▁ଶାସକ": 8467,
  "ɒ": 259,
  "କଲି": 39977,
  "ାଣା": 53826,
  "▁ଉପରାଷ୍ଟ୍ରପତି": 20622,
  "▁clearance": 49580,
  "▁EU": 1574,
  "ମିଣ୍ଟନ": 36316,
  "▁କନକ୍ଲେଭ": 26653,
  "▁ସର୍ଭିସ୍": 44077,
  "▁୧୯": 2467,
[...]
